{
  "version": "1.0",
  "truncation": null,
  "padding": null,
  "added_tokens": [
    {
      "id": 0,
      "content": "<pad>",
      "single_word": false,
      "lstrip": false,
      "rstrip": false,
      "normalized": false,
      "special": true
    },
    {
      "id": 1,
      "content": "<sos>",
      "single_word": false,
      "lstrip": false,
      "rstrip": false,
      "normalized": false,
      "special": true
    },
    {
      "id": 2,
      "content": "<eos>",
      "single_word": false,
      "lstrip": false,
      "rstrip": false,
      "normalized": false,
      "special": true
    },
    {
      "id": 3,
      "content": "<unk>",
      "single_word": false,
      "lstrip": false,
      "rstrip": false,
      "normalized": false,
      "special": true
    }
  ],
  "normalizer": null,
  "pre_tokenizer": {
    "type": "Whitespace"
  },
  "post_processor": null,
  "decoder": null,
  "model": {
    "type": "BPE",
    "dropout": null,
    "unk_token": "<unk>",
    "continuing_subword_prefix": null,
    "end_of_word_suffix": null,
    "fuse_unk": false,
    "byte_fallback": false,
    "ignore_merges": false,
    "vocab": {
      "<pad>": 0,
      "<sos>": 1,
      "<eos>": 2,
      "<unk>": 3,
      "!": 4,
      "\"": 5,
      "#": 6,
      "$": 7,
      "%": 8,
      "&": 9,
      "'": 10,
      "(": 11,
      ")": 12,
      "*": 13,
      "+": 14,
      ",": 15,
      "-": 16,
      ".": 17,
      "/": 18,
      "0": 19,
      "1": 20,
      "2": 21,
      "3": 22,
      "4": 23,
      "5": 24,
      "6": 25,
      "7": 26,
      "8": 27,
      "9": 28,
      ":": 29,
      ";": 30,
      "<": 31,
      "=": 32,
      ">": 33,
      "?": 34,
      "@": 35,
      "A": 36,
      "B": 37,
      "C": 38,
      "D": 39,
      "E": 40,
      "F": 41,
      "G": 42,
      "H": 43,
      "I": 44,
      "J": 45,
      "K": 46,
      "L": 47,
      "M": 48,
      "N": 49,
      "O": 50,
      "P": 51,
      "Q": 52,
      "R": 53,
      "S": 54,
      "T": 55,
      "U": 56,
      "V": 57,
      "W": 58,
      "X": 59,
      "Y": 60,
      "Z": 61,
      "[": 62,
      "\\": 63,
      "]": 64,
      "^": 65,
      "_": 66,
      "`": 67,
      "a": 68,
      "b": 69,
      "c": 70,
      "d": 71,
      "e": 72,
      "f": 73,
      "g": 74,
      "h": 75,
      "i": 76,
      "j": 77,
      "k": 78,
      "l": 79,
      "m": 80,
      "n": 81,
      "o": 82,
      "p": 83,
      "q": 84,
      "r": 85,
      "s": 86,
      "t": 87,
      "u": 88,
      "v": 89,
      "w": 90,
      "x": 91,
      "y": 92,
      "z": 93,
      "{": 94,
      "|": 95,
      "}": 96,
      "~": 97,
      "¡": 98,
      "¢": 99,
      "£": 100,
      "¤": 101,
      "¥": 102,
      "¦": 103,
      "§": 104,
      "¨": 105,
      "©": 106,
      "ª": 107,
      "«": 108,
      "¬": 109,
      "­": 110,
      "®": 111,
      "¯": 112,
      "°": 113,
      "±": 114,
      "²": 115,
      "³": 116,
      "´": 117,
      "µ": 118,
      "¶": 119,
      "·": 120,
      "¸": 121,
      "¹": 122,
      "º": 123,
      "»": 124,
      "¼": 125,
      "½": 126,
      "¾": 127,
      "¿": 128,
      "À": 129,
      "Á": 130,
      "Â": 131,
      "Ã": 132,
      "Ä": 133,
      "Å": 134,
      "Æ": 135,
      "Ç": 136,
      "È": 137,
      "É": 138,
      "Ê": 139,
      "Ë": 140,
      "Ì": 141,
      "Í": 142,
      "Î": 143,
      "Ð": 144,
      "Ñ": 145,
      "Ó": 146,
      "Ô": 147,
      "Ö": 148,
      "×": 149,
      "Ø": 150,
      "Ú": 151,
      "Ü": 152,
      "ß": 153,
      "à": 154,
      "á": 155,
      "â": 156,
      "ã": 157,
      "ä": 158,
      "å": 159,
      "æ": 160,
      "ç": 161,
      "è": 162,
      "é": 163,
      "ê": 164,
      "ë": 165,
      "ì": 166,
      "í": 167,
      "î": 168,
      "ï": 169,
      "ð": 170,
      "ñ": 171,
      "ò": 172,
      "ó": 173,
      "ô": 174,
      "õ": 175,
      "ö": 176,
      "÷": 177,
      "ø": 178,
      "ù": 179,
      "ú": 180,
      "û": 181,
      "ü": 182,
      "ý": 183,
      "þ": 184,
      "ÿ": 185,
      "ā": 186,
      "ć": 187,
      "Č": 188,
      "č": 189,
      "Đ": 190,
      "ę": 191,
      "ě": 192,
      "ğ": 193,
      "ġ": 194,
      "Ħ": 195,
      "ħ": 196,
      "ī": 197,
      "ı": 198,
      "Ł": 199,
      "ł": 200,
      "ń": 201,
      "ň": 202,
      "Ō": 203,
      "ō": 204,
      "ő": 205,
      "Œ": 206,
      "œ": 207,
      "ř": 208,
      "Ś": 209,
      "ś": 210,
      "Ş": 211,
      "ş": 212,
      "š": 213,
      "Ţ": 214,
      "ū": 215,
      "Ÿ": 216,
      "ź": 217,
      "Ż": 218,
      "ż": 219,
      "Ž": 220,
      "ž": 221,
      "ʻ": 222,
      "ʼ": 223,
      "ˆ": 224,
      "˚": 225,
      "˜": 226,
      "˝": 227,
      "̄": 228,
      "̈": 229,
      "Ι": 230,
      "О": 231,
      "П": 232,
      "а": 233,
      "б": 234,
      "д": 235,
      "е": 236,
      "л": 237,
      "н": 238,
      "о": 239,
      "т": 240,
      "ы": 241,
      "і": 242,
      "أ": 243,
      "ا": 244,
      "ب": 245,
      "ة": 246,
      "ت": 247,
      "ج": 248,
      "ح": 249,
      "ر": 250,
      "س": 251,
      "ش": 252,
      "ف": 253,
      "ك": 254,
      "ل": 255,
      "م": 256,
      "و": 257,
      "ي": 258,
      "ง": 259,
      "บ": 260,
      "พ": 261,
      "ย": 262,
      "Ḥ": 263,
      "ḥ": 264,
      "ṣ": 265,
      "ạ": 266,
      "ả": 267,
      "ấ": 268,
      "ế": 269,
      "​": 270,
      "‎": 271,
      "‏": 272,
      "‐": 273,
      "‑": 274,
      "–": 275,
      "—": 276,
      "―": 277,
      "‘": 278,
      "’": 279,
      "‚": 280,
      "“": 281,
      "”": 282,
      "„": 283,
      "‟": 284,
      "†": 285,
      "‡": 286,
      "•": 287,
      "…": 288,
      "‪": 289,
      "‬": 290,
      "‭": 291,
      "‰": 292,
      "′": 293,
      "″": 294,
      "‹": 295,
      "₩": 296,
      "€": 297,
      "™": 298,
      "⅓": 299,
      "⅔": 300,
      "⅛": 301,
      "−": 302,
      "█": 303,
      "■": 304,
      "▲": 305,
      "▼": 306,
      "●": 307,
      "♥": 308,
      "❤": 309,
      "世": 310,
      "个": 311,
      "中": 312,
      "你": 313,
      "呀": 314,
      "四": 315,
      "回": 316,
      "声": 317,
      "外": 318,
      "女": 319,
      "家": 320,
      "年": 321,
      "心": 322,
      "新": 323,
      "方": 324,
      "春": 325,
      "曆": 326,
      "有": 327,
      "来": 328,
      "没": 329,
      "游": 330,
      "界": 331,
      "等": 332,
      "節": 333,
      "農": 334,
      "过": 335,
      "钱": 336,
      "门": 337,
      "音": 338,
      "": 339,
      "": 340,
      "ﬁ": 341,
      "️": 342,
      "﻿": 343,
      "（": 344,
      "）": 345,
      "，": 346,
      "th": 347,
      "in": 348,
      "er": 349,
      "an": 350,
      "the": 351,
      "on": 352,
      "re": 353,
      "at": 354,
      "en": 355,
      "ed": 356,
      "or": 357,
      "st": 358,
      "al": 359,
      "to": 360,
      "ing": 361,
      "ar": 362,
      "ou": 363,
      "is": 364,
      "es": 365,
      "it": 366,
      "of": 367,
      "as": 368,
      "and": 369,
      "ic": 370,
      "he": 371,
      "le": 372,
      "om": 373,
      "id": 374,
      "ion": 375,
      "il": 376,
      "ent": 377,
      "ac": 378,
      "se": 379,
      "be": 380,
      "ve": 381,
      "ay": 382,
      "ad": 383,
      "for": 384,
      "ro": 385,
      "am": 386,
      "ol": 387,
      "ly": 388,
      "ch": 389,
      "wh": 390,
      "im": 391,
      "ig": 392,
      "that": 393,
      "ow": 394,
      "ver": 395,
      "ot": 396,
      "ur": 397,
      "sa": 398,
      "ter": 399,
      "ut": 400,
      "ir": 401,
      "un": 402,
      "de": 403,
      "The": 404,
      "ation": 405,
      "was": 406,
      "are": 407,
      "ce": 408,
      "said": 409,
      "ge": 410,
      "ith": 411,
      "ill": 412,
      "pe": 413,
      "ld": 414,
      "ne": 415,
      "con": 416,
      "ha": 417,
      "ri": 418,
      "ers": 419,
      "ere": 420,
      "us": 421,
      "with": 422,
      "ab": 423,
      "res": 424,
      "op": 425,
      "li": 426,
      "ct": 427,
      "we": 428,
      "mo": 429,
      "oun": 430,
      "ke": 431,
      "com": 432,
      "te": 433,
      "ra": 434,
      "ate": 435,
      "out": 436,
      "ul": 437,
      "ment": 438,
      "all": 439,
      "lo": 440,
      "fr": 441,
      "his": 442,
      "su": 443,
      "our": 444,
      "igh": 445,
      "pro": 446,
      "ag": 447,
      "sh": 448,
      "ts": 449,
      "ist": 450,
      ",\"": 451,
      "have": 452,
      "la": 453,
      "ther": 454,
      "fe": 455,
      "one": 456,
      "by": 457,
      "ex": 458,
      "day": 459,
      "from": 460,
      "ap": 461,
      "--": 462,
      "ear": 463,
      "has": 464,
      "pl": 465,
      "so": 466,
      "por": 467,
      "not": 468,
      "ity": 469,
      "man": 470,
      "po": 471,
      "ould": 472,
      "art": 473,
      "ain": 474,
      "go": 475,
      "me": 476,
      ".\"": 477,
      "00": 478,
      "di": 479,
      "ack": 480,
      "tr": 481,
      "end": 482,
      "ll": 483,
      "ome": 484,
      "ess": 485,
      "who": 486,
      "gh": 487,
      "wor": 488,
      "her": 489,
      "ust": 490,
      "ant": 491,
      "ial": 492,
      "up": 493,
      "ies": 494,
      "ice": 495,
      "but": 496,
      "ak": 497,
      "ive": 498,
      "af": 499,
      "ight": 500,
      "do": 501,
      "off": 502,
      "year": 503,
      "od": 504,
      "this": 505,
      "au": 506,
      "qu": 507,
      "ie": 508,
      "port": 509,
      "In": 510,
      "say": 511,
      "ard": 512,
      "they": 513,
      "will": 514,
      "el": 515,
      "act": 516,
      "ast": 517,
      "had": 518,
      "if": 519,
      "were": 520,
      "ore": 521,
      "ans": 522,
      "ong": 523,
      "ound": 524,
      "mer": 525,
      "tim": 526,
      "per": 527,
      "pr": 528,
      "their": 529,
      "over": 530,
      "ide": 531,
      "ia": 532,
      "been": 533,
      "der": 534,
      "cl": 535,
      "CN": 536,
      "gr": 537,
      "CNN": 538,
      "Th": 539,
      "ding": 540,
      "ine": 541,
      "she": 542,
      "now": 543,
      "you": 544,
      "mb": 545,
      "ough": 546,
      "iv": 547,
      "about": 548,
      "ok": 549,
      "ep": 550,
      "ev": 551,
      "ident": 552,
      "ich": 553,
      "bl": 554,
      "It": 555,
      "ary": 556,
      "can": 557,
      "more": 558,
      "bo": 559,
      "ople": 560,
      "cr": 561,
      "ous": 562,
      "sp": 563,
      "after": 564,
      "est": 565,
      "no": 566,
      "pol": 567,
      "He": 568,
      "ally": 569,
      "ions": 570,
      "ace": 571,
      "ated": 572,
      "people": 573,
      "its": 574,
      "ree": 575,
      "ass": 576,
      "red": 577,
      "em": 578,
      "pres": 579,
      "ind": 580,
      "ame": 581,
      "Ch": 582,
      "some": 583,
      "An": 584,
      "cor": 585,
      "ence": 586,
      "own": 587,
      "age": 588,
      "would": 589,
      "wo": 590,
      "any": 591,
      "iz": 592,
      "cont": 593,
      "way": 594,
      "ud": 595,
      "ck": 596,
      "att": 597,
      "St": 598,
      "other": 599,
      "ake": 600,
      "ian": 601,
      "coun": 602,
      "dis": 603,
      "new": 604,
      "co": 605,
      "which": 606,
      "ho": 607,
      "work": 608,
      "ite": 609,
      "ip": 610,
      "ign": 611,
      "et": 612,
      "very": 613,
      "ish": 614,
      "than": 615,
      "when": 616,
      "20": 617,
      "ach": 618,
      "ren": 619,
      "We": 620,
      "av": 621,
      "cre": 622,
      "ile": 623,
      "ff": 624,
      "also": 625,
      "says": 626,
      "um": 627,
      "ty": 628,
      "fir": 629,
      "time": 630,
      "thing": 631,
      "part": 632,
      "med": 633,
      "mon": 634,
      "ors": 635,
      "Wh": 636,
      "ure": 637,
      "my": 638,
      "ations": 639,
      "like": 640,
      "ted": 641,
      "old": 642,
      "But": 643,
      "ran": 644,
      "able": 645,
      "ue": 646,
      "ates": 647,
      "there": 648,
      "comp": 649,
      "cent": 650,
      "him": 651,
      "ss": 652,
      "two": 653,
      "ail": 654,
      "ru": 655,
      "ical": 656,
      "just": 657,
      "ser": 658,
      "get": 659,
      "ase": 660,
      "what": 661,
      "ek": 662,
      "them": 663,
      "ib": 664,
      "fore": 665,
      "Un": 666,
      "min": 667,
      "into": 668,
      "offic": 669,
      "pre": 670,
      "try": 671,
      "inter": 672,
      "told": 673,
      "cau": 674,
      "ubl": 675,
      "Ne": 676,
      "state": 677,
      "int": 678,
      "ob": 679,
      "air": 680,
      "last": 681,
      "ry": 682,
      "years": 683,
      "ens": 684,
      "ph": 685,
      "leg": 686,
      "could": 687,
      "first": 688,
      "amp": 689,
      "enc": 690,
      "ath": 691,
      "pp": 692,
      "ink": 693,
      "ational": 694,
      "ade": 695,
      "ild": 696,
      "200": 697,
      "mber": 698,
      "vern": 699,
      "cur": 700,
      "ican": 701,
      "19": 702,
      "ict": 703,
      "govern": 704,
      "ose": 705,
      "know": 706,
      "report": 707,
      "ater": 708,
      "ick": 709,
      "ition": 710,
      "ited": 711,
      "mar": 712,
      "land": 713,
      "sc": 714,
      "call": 715,
      "ved": 716,
      "cause": 717,
      "ang": 718,
      "hel": 719,
      "ning": 720,
      "tra": 721,
      "br": 722,
      "ire": 723,
      "don": 724,
      "201": 725,
      "Amer": 726,
      "ance": 727,
      "back": 728,
      "ting": 729,
      "most": 730,
      "ins": 731,
      "iss": 732,
      "ef": 733,
      "ash": 734,
      "ory": 735,
      "where": 736,
      "ities": 737,
      "fl": 738,
      "pect": 739,
      "fam": 740,
      "ful": 741,
      "oup": 742,
      "row": 743,
      "did": 744,
      "vel": 745,
      "ama": 746,
      "week": 747,
      "again": 748,
      "comm": 749,
      "New": 750,
      "ned": 751,
      "son": 752,
      "tri": 753,
      "government": 754,
      "play": 755,
      "ily": 756,
      "ction": 757,
      "lead": 758,
      "ious": 759,
      "fin": 760,
      "And": 761,
      "under": 762,
      "cording": 763,
      "pt": 764,
      "law": 765,
      "ress": 766,
      "how": 767,
      "cess": 768,
      "ving": 769,
      "vers": 770,
      "car": 771,
      "used": 772,
      "low": 773,
      "reat": 774,
      "sel": 775,
      "cond": 776,
      "tur": 777,
      "og": 778,
      "cial": 779,
      "because": 780,
      "mil": 781,
      "bet": 782,
      "clu": 783,
      "reg": 784,
      "official": 785,
      "kill": 786,
      "wom": 787,
      "vis": 788,
      "show": 789,
      "down": 790,
      "spe": 791,
      "gu": 792,
      "pos": 793,
      "..": 794,
      "form": 795,
      "des": 796,
      "ince": 797,
      "come": 798,
      "world": 799,
      "before": 800,
      "ents": 801,
      "many": 802,
      "cho": 803,
      "Ob": 804,
      "test": 805,
      "rest": 806,
      "cer": 807,
      "ating": 808,
      "police": 809,
      "ublic": 810,
      "illion": 811,
      "rough": 812,
      "ult": 813,
      "fo": 814,
      "esday": 815,
      "add": 816,
      "atch": 817,
      "child": 818,
      "rit": 819,
      "being": 820,
      "led": 821,
      "ters": 822,
      "only": 823,
      "De": 824,
      "cut": 825,
      "home": 826,
      "ton": 827,
      "char": 828,
      "vie": 829,
      "uring": 830,
      "sur": 831,
      "ces": 832,
      "help": 833,
      "cle": 834,
      "Mar": 835,
      "Re": 836,
      "want": 837,
      "000": 838,
      "als": 839,
      "ced": 840,
      "bu": 841,
      "Obama": 842,
      "month": 843,
      "use": 844,
      "She": 845,
      "those": 846,
      "cour": 847,
      "country": 848,
      "ber": 849,
      "tain": 850,
      "national": 851,
      "your": 852,
      "Al": 853,
      "ons": 854,
      "read": 855,
      "found": 856,
      "dec": 857,
      "nu": 858,
      "three": 859,
      "alk": 860,
      "uch": 861,
      "think": 862,
      "aking": 863,
      "resident": 864,
      "through": 865,
      "vest": 866,
      "ble": 867,
      "long": 868,
      "against": 869,
      "par": 870,
      "group": 871,
      "ft": 872,
      "Is": 873,
      "war": 874,
      "made": 875,
      "according": 876,
      "ouse": 877,
      "every": 878,
      "du": 879,
      "sy": 880,
      "Se": 881,
      "ves": 882,
      "need": 883,
      "They": 884,
      "Ar": 885,
      "head": 886,
      "As": 887,
      "col": 888,
      "gan": 889,
      "may": 890,
      "United": 891,
      "while": 892,
      "ased": 893,
      "even": 894,
      "os": 895,
      "going": 896,
      "str": 897,
      "life": 898,
      "look": 899,
      "rel": 900,
      "ele": 901,
      "ven": 902,
      "make": 903,
      "alth": 904,
      "ort": 905,
      "vic": 906,
      "pers": 907,
      "plan": 908,
      "then": 909,
      "ner": 910,
      "family": 911,
      "thor": 912,
      "see": 913,
      "ina": 914,
      "ward": 915,
      "main": 916,
      "sup": 917,
      "les": 918,
      "ments": 919,
      "high": 920,
      "che": 921,
      "eng": 922,
      "attack": 923,
      "set": 924,
      "milit": 925,
      "inclu": 926,
      "ask": 927,
      "put": 928,
      "ise": 929,
      "Le": 930,
      "rid": 931,
      "well": 932,
      "clo": 933,
      "appe": 934,
      "vi": 935,
      "ged": 936,
      "ney": 937,
      "eral": 938,
      "president": 939,
      "invest": 940,
      "This": 941,
      "take": 942,
      "should": 943,
      "miss": 944,
      "ather": 945,
      "uss": 946,
      "ied": 947,
      "side": 948,
      "run": 949,
      "Jo": 950,
      "million": 951,
      "still": 952,
      "ered": 953,
      "view": 954,
      "aren": 955,
      "stand": 956,
      "10": 957,
      "ital": 958,
      "self": 959,
      "hu": 960,
      "less": 961,
      "oc": 962,
      "polit": 963,
      "ica": 964,
      "ines": 965,
      "Mon": 966,
      "ists": 967,
      "during": 968,
      "lar": 969,
      "ix": 970,
      "ime": 971,
      "For": 972,
      "At": 973,
      "kes": 974,
      "ma": 975,
      "ms": 976,
      "Af": 977,
      "public": 978,
      "came": 979,
      "cap": 980,
      "chool": 981,
      "bor": 982,
      "beli": 983,
      "since": 984,
      "resp": 985,
      "ics": 986,
      "je": 987,
      "exp": 988,
      "diff": 989,
      "spo": 990,
      "death": 991,
      "right": 992,
      "issu": 993,
      "ared": 994,
      "cover": 995,
      "outh": 996,
      "ever": 997,
      "ative": 998,
      "vol": 999,
      "There": 1000,
      "ody": 1001,
      "fect": 1002,
      "President": 1003,
      "happ": 1004,
      "ings": 1005,
      "line": 1006,
      "ship": 1007,
      "ween": 1008,
      "much": 1009,
      "though": 1010,
      "ights": 1011,
      "ten": 1012,
      "riend": 1013,
      "ann": 1014,
      "person": 1015,
      "such": 1016,
      "win": 1017,
      "fil": 1018,
      "No": 1019,
      "quest": 1020,
      "hand": 1021,
      "four": 1022,
      "let": 1023,
      "around": 1024,
      "start": 1025,
      "called": 1026,
      "between": 1027,
      "children": 1028,
      "gen": 1029,
      "Be": 1030,
      "curity": 1031,
      "American": 1032,
      "friend": 1033,
      "team": 1034,
      "these": 1035,
      "stru": 1036,
      "fer": 1037,
      "ris": 1038,
      "prov": 1039,
      "Tu": 1040,
      "clear": 1041,
      "ah": 1042,
      "care": 1043,
      "near": 1044,
      "Rep": 1045,
      "ency": 1046,
      "xt": 1047,
      "got": 1048,
      "aw": 1049,
      "author": 1050,
      "place": 1051,
      "gest": 1052,
      "States": 1053,
      "ility": 1054,
      "men": 1055,
      "including": 1056,
      "def": 1057,
      "does": 1058,
      "case": 1059,
      "und": 1060,
      "investig": 1061,
      "arch": 1062,
      "ban": 1063,
      "ible": 1064,
      "contin": 1065,
      "pass": 1066,
      "fol": 1067,
      "cons": 1068,
      "ross": 1069,
      "rele": 1070,
      "ual": 1071,
      "military": 1072,
      "That": 1073,
      "book": 1074,
      "press": 1075,
      "oper": 1076,
      "sign": 1077,
      "Nor": 1078,
      "acc": 1079,
      "court": 1080,
      "vot": 1081,
      "minist": 1082,
      "pow": 1083,
      "pri": 1084,
      "school": 1085,
      "ular": 1086,
      "officials": 1087,
      "bus": 1088,
      "imp": 1089,
      "good": 1090,
      "mbers": 1091,
      "cal": 1092,
      "night": 1093,
      "ened": 1094,
      "bro": 1095,
      "ized": 1096,
      "urs": 1097,
      "women": 1098,
      "ls": 1099,
      "former": 1100,
      "ger": 1101,
      "ense": 1102,
      "ale": 1103,
      "bre": 1104,
      "second": 1105,
      "ork": 1106,
      "top": 1107,
      "istan": 1108,
      "ave": 1109,
      "ures": 1110,
      "sol": 1111,
      "statement": 1112,
      "ason": 1113,
      "stud": 1114,
      "If": 1115,
      "killed": 1116,
      "Sy": 1117,
      "olog": 1118,
      "tle": 1119,
      "ush": 1120,
      "vice": 1121,
      "cla": 1122,
      "same": 1123,
      "rect": 1124,
      "support": 1125,
      "days": 1126,
      "Sun": 1127,
      "ks": 1128,
      "ject": 1129,
      "sure": 1130,
      "left": 1131,
      "gy": 1132,
      "camp": 1133,
      "Mo": 1134,
      "tell": 1135,
      "reported": 1136,
      "big": 1137,
      "uro": 1138,
      "another": 1139,
      "ling": 1140,
      "viol": 1141,
      "Bo": 1142,
      "En": 1143,
      "ci": 1144,
      "won": 1145,
      "sho": 1146,
      "sm": 1147,
      "chan": 1148,
      "ball": 1149,
      "claim": 1150,
      "So": 1151,
      "real": 1152,
      "You": 1153,
      "app": 1154,
      "Con": 1155,
      "jo": 1156,
      "On": 1157,
      "ys": 1158,
      "follow": 1159,
      "commun": 1160,
      "recent": 1161,
      "ness": 1162,
      "cu": 1163,
      "unt": 1164,
      "Pol": 1165,
      "ribut": 1166,
      "ges": 1167,
      "fac": 1168,
      "ds": 1169,
      "exper": 1170,
      "Tuesday": 1171,
      "ants": 1172,
      "never": 1173,
      "ways": 1174,
      "tak": 1175,
      "sent": 1176,
      "ars": 1177,
      "sub": 1178,
      "trans": 1179,
      "next": 1180,
      "produ": 1181,
      "contro": 1182,
      "ern": 1183,
      "mp": 1184,
      "atur": 1185,
      "lit": 1186,
      "city": 1187,
      "ism": 1188,
      "really": 1189,
      "IS": 1190,
      "Car": 1191,
      "Com": 1192,
      "nor": 1193,
      "io": 1194,
      "body": 1195,
      "Inter": 1196,
      "Monday": 1197,
      "ames": 1198,
      "mocr": 1199,
      "lot": 1200,
      "ali": 1201,
      "health": 1202,
      "site": 1203,
      "York": 1204,
      "ined": 1205,
      "ives": 1206,
      "poss": 1207,
      "both": 1208,
      "Sh": 1209,
      "power": 1210,
      "az": 1211,
      "talk": 1212,
      "vent": 1213,
      "conom": 1214,
      "ution": 1215,
      "hn": 1216,
      "ket": 1217,
      "Wed": 1218,
      "woman": 1219,
      "sit": 1220,
      "stem": 1221,
      "dri": 1222,
      "took": 1223,
      "spokes": 1224,
      "ago": 1225,
      "ually": 1226,
      "ific": 1227,
      "ired": 1228,
      "turn": 1229,
      "ug": 1230,
      "ca": 1231,
      "net": 1232,
      "lim": 1233,
      "Afr": 1234,
      "50": 1235,
      "ports": 1236,
      "remain": 1237,
      "ivers": 1238,
      "mor": 1239,
      "den": 1240,
      "Frid": 1241,
      "direct": 1242,
      "security": 1243,
      "ond": 1244,
      "Bar": 1245,
      "Mc": 1246,
      "rist": 1247,
      "later": 1248,
      "Brit": 1249,
      "bed": 1250,
      "wit": 1251,
      "South": 1252,
      "...": 1253,
      "hour": 1254,
      "Wedn": 1255,
      "Wednesday": 1256,
      "thers": 1257,
      "Friday": 1258,
      "ration": 1259,
      "pris": 1260,
      "atic": 1261,
      "Syri": 1262,
      "fire": 1263,
      "too": 1264,
      "far": 1265,
      "search": 1266,
      "loy": 1267,
      "ta": 1268,
      "sus": 1269,
      "When": 1270,
      "Mr": 1271,
      "John": 1272,
      "fact": 1273,
      "ror": 1274,
      "expect": 1275,
      ".'": 1276,
      "arrest": 1277,
      "iness": 1278,
      "blo": 1279,
      "econom": 1280,
      "here": 1281,
      "bur": 1282,
      "ended": 1283,
      "pop": 1284,
      "five": 1285,
      "gram": 1286,
      "alleg": 1287,
      "Co": 1288,
      "sever": 1289,
      "Thurs": 1290,
      "emp": 1291,
      "ark": 1292,
      "didn": 1293,
      "allow": 1294,
      "Russ": 1295,
      "Thursday": 1296,
      "30": 1297,
      "move": 1298,
      "prom": 1299,
      "youn": 1300,
      "differ": 1301,
      "oney": 1302,
      "inc": 1303,
      "ral": 1304,
      "sing": 1305,
      "point": 1306,
      "cri": 1307,
      "ready": 1308,
      "political": 1309,
      "post": 1310,
      "away": 1311,
      "whe": 1312,
      "mit": 1313,
      "11": 1314,
      "times": 1315,
      "vide": 1316,
      "Pe": 1317,
      "jor": 1318,
      "few": 1319,
      "ured": 1320,
      "members": 1321,
      "late": 1322,
      "gun": 1323,
      "ste": 1324,
      "best": 1325,
      "prof": 1326,
      "organ": 1327,
      "feel": 1328,
      "Sunday": 1329,
      "ending": 1330,
      "House": 1331,
      "sex": 1332,
      "Euro": 1333,
      "went": 1334,
      "ians": 1335,
      "What": 1336,
      "proble": 1337,
      "Wor": 1338,
      "company": 1339,
      "water": 1340,
      "wn": 1341,
      "hal": 1342,
      "news": 1343,
      "system": 1344,
      "aring": 1345,
      "list": 1346,
      "pay": 1347,
      "open": 1348,
      "died": 1349,
      "ley": 1350,
      "hist": 1351,
      "months": 1352,
      "ats": 1353,
      "2012": 1354,
      "ier": 1355,
      "ub": 1356,
      "contribut": 1357,
      "How": 1358,
      "ped": 1359,
      "room": 1360,
      "Fran": 1361,
      "mother": 1362,
      "Sen": 1363,
      "incre": 1364,
      "giv": 1365,
      "ife": 1366,
      "ages": 1367,
      "dr": 1368,
      "China": 1369,
      "past": 1370,
      "Ira": 1371,
      "ators": 1372,
      "something": 1373,
      "known": 1374,
      "ext": 1375,
      "Iraq": 1376,
      "North": 1377,
      "protest": 1378,
      "ury": 1379,
      "ately": 1380,
      "authorities": 1381,
      "gir": 1382,
      "keep": 1383,
      "Go": 1384,
      "number": 1385,
      "Coun": 1386,
      "rug": 1387,
      "change": 1388,
      "Sp": 1389,
      "face": 1390,
      "using": 1391,
      "ington": 1392,
      "program": 1393,
      "Cl": 1394,
      "ref": 1395,
      "light": 1396,
      "Min": 1397,
      "hard": 1398,
      "gl": 1399,
      "ene": 1400,
      "major": 1401,
      "Europe": 1402,
      "World": 1403,
      "without": 1404,
      "buil": 1405,
      "least": 1406,
      "stit": 1407,
      "find": 1408,
      "cas": 1409,
      "elect": 1410,
      "ute": 1411,
      "recor": 1412,
      "stop": 1413,
      "fight": 1414,
      "invol": 1415,
      "human": 1416,
      "job": 1417,
      "acy": 1418,
      "shot": 1419,
      "One": 1420,
      "ham": 1421,
      "inj": 1422,
      "aign": 1423,
      "Iran": 1424,
      "Ro": 1425,
      "mak": 1426,
      "Col": 1427,
      "dist": 1428,
      "ched": 1429,
      "suc": 1430,
      "six": 1431,
      "ret": 1432,
      "saying": 1433,
      "order": 1434,
      "artment": 1435,
      "business": 1436,
      "whether": 1437,
      "rece": 1438,
      "rain": 1439,
      "Democr": 1440,
      "12": 1441,
      "ional": 1442,
      "rent": 1443,
      "fed": 1444,
      "ai": 1445,
      "concer": 1446,
      "Dep": 1447,
      "announ": 1448,
      "dep": 1449,
      "decis": 1450,
      "ize": 1451,
      "might": 1452,
      "hoto": 1453,
      "foot": 1454,
      "money": 1455,
      "safe": 1456,
      "media": 1457,
      "ones": 1458,
      "To": 1459,
      "force": 1460,
      "pat": 1461,
      "spital": 1462,
      "ering": 1463,
      "terror": 1464,
      "tro": 1465,
      "ided": 1466,
      "ps": 1467,
      "deal": 1468,
      "house": 1469,
      "eve": 1470,
      "Pr": 1471,
      "Isra": 1472,
      "formation": 1473,
      "May": 1474,
      "199": 1475,
      "secut": 1476,
      "grow": 1477,
      "uck": 1478,
      "fort": 1479,
      "ese": 1480,
      "West": 1481,
      "nation": 1482,
      "ished": 1483,
      "cret": 1484,
      "campaign": 1485,
      "augh": 1486,
      "threat": 1487,
      "nam": 1488,
      "seen": 1489,
      "15": 1490,
      "key": 1491,
      "ground": 1492,
      "ivil": 1493,
      "ought": 1494,
      "working": 1495,
      "crit": 1496,
      "velop": 1497,
      "ified": 1498,
      "Satur": 1499,
      "val": 1500,
      "early": 1501,
      "His": 1502,
      "reme": 1503,
      "coming": 1504,
      "present": 1505,
      "father": 1506,
      "colle": 1507,
      "ster": 1508,
      "paren": 1509,
      "appro": 1510,
      "cy": 1511,
      "leaders": 1512,
      "little": 1513,
      "meet": 1514,
      "added": 1515,
      "Kore": 1516,
      "asked": 1517,
      "lam": 1518,
      "each": 1519,
      "ield": 1520,
      "things": 1521,
      "crim": 1522,
      "young": 1523,
      "sk": 1524,
      "bab": 1525,
      "tect": 1526,
      "action": 1527,
      "Wash": 1528,
      "area": 1529,
      "Saturday": 1530,
      "idence": 1531,
      "Mic": 1532,
      "ony": 1533,
      "gin": 1534,
      "omb": 1535,
      "position": 1536,
      "Ju": 1537,
      "stri": 1538,
      "hol": 1539,
      "Pro": 1540,
      "great": 1541,
      "Washington": 1542,
      "Ste": 1543,
      "import": 1544,
      "until": 1545,
      "taken": 1546,
      "video": 1547,
      "gre": 1548,
      "sen": 1549,
      "dead": 1550,
      "town": 1551,
      "legal": 1552,
      "ric": 1553,
      "rights": 1554,
      "Ge": 1555,
      "Christ": 1556,
      "ord": 1557,
      "several": 1558,
      "bal": 1559,
      "photo": 1560,
      "Afgh": 1561,
      "National": 1562,
      "18": 1563,
      "ister": 1564,
      "gra": 1565,
      "hit": 1566,
      "stor": 1567,
      "inal": 1568,
      "victim": 1569,
      "lier": 1570,
      "Police": 1571,
      "aid": 1572,
      "jud": 1573,
      "travel": 1574,
      "Li": 1575,
      "band": 1576,
      "chang": 1577,
      "ator": 1578,
      "drug": 1579,
      "turned": 1580,
      "half": 1581,
      "close": 1582,
      "across": 1583,
      "sum": 1584,
      "Some": 1585,
      "consid": 1586,
      "spokesman": 1587,
      "dra": 1588,
      "iting": 1589,
      "ont": 1590,
      "aff": 1591,
      "kid": 1592,
      "office": 1593,
      "must": 1594,
      "atter": 1595,
      "prison": 1596,
      "iversity": 1597,
      "today": 1598,
      "different": 1599,
      "others": 1600,
      "game": 1601,
      "step": 1602,
      "Afghan": 1603,
      "ird": 1604,
      "develop": 1605,
      "tour": 1606,
      "Man": 1607,
      "icans": 1608,
      "tech": 1609,
      "among": 1610,
      "seem": 1611,
      "success": 1612,
      "making": 1613,
      "Gr": 1614,
      "information": 1615,
      "ically": 1616,
      "contributed": 1617,
      "nal": 1618,
      "rul": 1619,
      "event": 1620,
      "better": 1621,
      "become": 1622,
      "believe": 1623,
      "America": 1624,
      "vir": 1625,
      "already": 1626,
      "international": 1627,
      "State": 1628,
      "writ": 1629,
      "ior": 1630,
      "ying": 1631,
      "une": 1632,
      "orney": 1633,
      "Ph": 1634,
      "dam": 1635,
      "civil": 1636,
      "fail": 1637,
      "tries": 1638,
      "comple": 1639,
      "ential": 1640,
      "Me": 1641,
      "After": 1642,
      "Dav": 1643,
      "enter": 1644,
      "ried": 1645,
      "held": 1646,
      "phone": 1647,
      "Lon": 1648,
      "tar": 1649,
      "Department": 1650,
      "based": 1651,
      "story": 1652,
      "Har": 1653,
      "ient": 1654,
      "polic": 1655,
      "always": 1656,
      "vious": 1657,
      "released": 1658,
      "small": 1659,
      "commit": 1660,
      "Indi": 1661,
      "forces": 1662,
      "free": 1663,
      "federal": 1664,
      "trying": 1665,
      "mand": 1666,
      "All": 1667,
      "lor": 1668,
      "hours": 1669,
      "Gu": 1670,
      "reach": 1671,
      "tit": 1672,
      "enn": 1673,
      "local": 1674,
      "fun": 1675,
      "clud": 1676,
      "partic": 1677,
      "poin": 1678,
      "ief": 1679,
      "London": 1680,
      "requ": 1681,
      "mes": 1682,
      "plac": 1683,
      "imm": 1684,
      "ides": 1685,
      "comes": 1686,
      "hind": 1687,
      "watch": 1688,
      "cost": 1689,
      "descri": 1690,
      "bar": 1691,
      "shoot": 1692,
      "employ": 1693,
      "ience": 1694,
      "mid": 1695,
      "continu": 1696,
      "porters": 1697,
      "likely": 1698,
      "strong": 1699,
      "possible": 1700,
      "wife": 1701,
      "suff": 1702,
      "ised": 1703,
      "star": 1704,
      "party": 1705,
      "uc": 1706,
      "mur": 1707,
      "Jan": 1708,
      "Americans": 1709,
      "rad": 1710,
      "mom": 1711,
      "tem": 1712,
      "give": 1713,
      "Pak": 1714,
      "ived": 1715,
      "Ger": 1716,
      "along": 1717,
      "Ac": 1718,
      "level": 1719,
      "taking": 1720,
      "violence": 1721,
      "incident": 1722,
      "season": 1723,
      "ik": 1724,
      "decision": 1725,
      "cept": 1726,
      "class": 1727,
      "round": 1728,
      "nia": 1729,
      "bit": 1730,
      "important": 1731,
      "ana": 1732,
      "que": 1733,
      "hospital": 1734,
      "kind": 1735,
      "Ab": 1736,
      "Air": 1737,
      "ague": 1738,
      "record": 1739,
      "issue": 1740,
      "activ": 1741,
      "By": 1742,
      "TV": 1743,
      "countries": 1744,
      "why": 1745,
      "believ": 1746,
      "Pakistan": 1747,
      "qual": 1748,
      "fall": 1749,
      "behind": 1750,
      "break": 1751,
      "having": 1752,
      "final": 1753,
      "aly": 1754,
      "road": 1755,
      "reed": 1756,
      "Ser": 1757,
      "ization": 1758,
      "started": 1759,
      "investigation": 1760,
      "suspect": 1761,
      "doing": 1762,
      "ank": 1763,
      "ining": 1764,
      "name": 1765,
      "deb": 1766,
      "wa": 1767,
      "community": 1768,
      "rac": 1769,
      "ops": 1770,
      "pur": 1771,
      "British": 1772,
      "iam": 1773,
      "My": 1774,
      "began": 1775,
      "hold": 1776,
      "Cali": 1777,
      "del": 1778,
      "mission": 1779,
      "Rob": 1780,
      "posed": 1781,
      "Califor": 1782,
      "gg": 1783,
      "priv": 1784,
      "interest": 1785,
      "compe": 1786,
      "outside": 1787,
      "question": 1788,
      "current": 1789,
      "match": 1790,
      "hot": 1791,
      "thought": 1792,
      "Geor": 1793,
      "ey": 1794,
      "flo": 1795,
      "2011": 1796,
      "alleged": 1797,
      "16": 1798,
      "rote": 1799,
      "pen": 1800,
      "daugh": 1801,
      "building": 1802,
      "ood": 1803,
      "ns": 1804,
      "Mex": 1805,
      "har": 1806,
      "Jack": 1807,
      "wrote": 1808,
      "term": 1809,
      "California": 1810,
      "vo": 1811,
      "thern": 1812,
      "ugh": 1813,
      "large": 1814,
      "mus": 1815,
      "doesn": 1816,
      "Hol": 1817,
      "Will": 1818,
      "percent": 1819,
      "40": 1820,
      "social": 1821,
      "hope": 1822,
      "lost": 1823,
      "host": 1824,
      "Syria": 1825,
      "walk": 1826,
      "weeks": 1827,
      "live": 1828,
      "ecut": 1829,
      "expected": 1830,
      "met": 1831,
      "fur": 1832,
      "treat": 1833,
      "ert": 1834,
      "wanted": 1835,
      "front": 1836,
      "div": 1837,
      "mot": 1838,
      "effect": 1839,
      "race": 1840,
      "process": 1841,
      "AT": 1842,
      "once": 1843,
      "given": 1844,
      "parents": 1845,
      "techn": 1846,
      "100": 1847,
      "field": 1848,
      "enough": 1849,
      "ands": 1850,
      "web": 1851,
      "Her": 1852,
      "stay": 1853,
      "interview": 1854,
      "administ": 1855,
      "With": 1856,
      "rown": 1857,
      "prosecut": 1858,
      "saw": 1859,
      "feat": 1860,
      "count": 1861,
      "van": 1862,
      "history": 1863,
      "respons": 1864,
      "White": 1865,
      "Or": 1866,
      "food": 1867,
      "hom": 1868,
      "comment": 1869,
      "dro": 1870,
      "ards": 1871,
      "Fe": 1872,
      "attacks": 1873,
      "Just": 1874,
      "gether": 1875,
      "chall": 1876,
      "pot": 1877,
      "cast": 1878,
      "25": 1879,
      "Cong": 1880,
      "short": 1881,
      "gress": 1882,
      "murder": 1883,
      "jour": 1884,
      "ology": 1885,
      "lear": 1886,
      "pite": 1887,
      "17": 1888,
      "ico": 1889,
      "black": 1890,
      "often": 1891,
      "Aust": 1892,
      "fut": 1893,
      "charges": 1894,
      "gency": 1895,
      "love": 1896,
      "done": 1897,
      "Bl": 1898,
      "dest": 1899,
      "leader": 1900,
      "tax": 1901,
      "docu": 1902,
      "control": 1903,
      "While": 1904,
      "film": 1905,
      "EW": 1906,
      "Rom": 1907,
      "vision": 1908,
      "aged": 1909,
      "uation": 1910,
      "Republic": 1911,
      "famil": 1912,
      "tee": 1913,
      "City": 1914,
      "ability": 1915,
      "third": 1916,
      "emer": 1917,
      "arrested": 1918,
      "cted": 1919,
      "ler": 1920,
      "visit": 1921,
      "Pal": 1922,
      "together": 1923,
      "looking": 1924,
      "utes": 1925,
      ",'": 1926,
      "trad": 1927,
      "vict": 1928,
      "gn": 1929,
      "University": 1930,
      "bomb": 1931,
      "execut": 1932,
      "Face": 1933,
      "13": 1934,
      "ze": 1935,
      "ctor": 1936,
      "king": 1937,
      "friends": 1938,
      "service": 1939,
      "bring": 1940,
      "sour": 1941,
      "ences": 1942,
      "design": 1943,
      "messa": 1944,
      "Congress": 1945,
      "Islam": 1946,
      "14": 1947,
      "ention": 1948,
      "tail": 1949,
      "full": 1950,
      "groups": 1951,
      "future": 1952,
      "wr": 1953,
      "ination": 1954,
      "mean": 1955,
      "election": 1956,
      "medi": 1957,
      "earlier": 1958,
      "cra": 1959,
      "ona": 1960,
      "evidence": 1961,
      "pped": 1962,
      "decl": 1963,
      "ublican": 1964,
      "bill": 1965,
      "ffic": 1966,
      "includ": 1967,
      "Cour": 1968,
      "Facebook": 1969,
      "cand": 1970,
      "eas": 1971,
      "gener": 1972,
      "aul": 1973,
      "Tr": 1974,
      "ging": 1975,
      "Republican": 1976,
      "sug": 1977,
      "girl": 1978,
      "getting": 1979,
      "lives": 1980,
      "director": 1981,
      "certain": 1982,
      "vices": 1983,
      "Mus": 1984,
      "appear": 1985,
      "became": 1986,
      "2010": 1987,
      "coup": 1988,
      "Par": 1989,
      "amer": 1990,
      "weap": 1991,
      "wide": 1992,
      "tract": 1993,
      "apan": 1994,
      "protect": 1995,
      "Africa": 1996,
      "ES": 1997,
      "rict": 1998,
      "continue": 1999,
      "special": 2000,
      "club": 2001,
      "soci": 2002,
      "Russia": 2003,
      "spec": 2004,
      "attorney": 2005,
      "Japan": 2006,
      "Je": 2007,
      "daughter": 2008,
      "hop": 2009,
      "foc": 2010,
      "issues": 2011,
      "trial": 2012,
      "laun": 2013,
      "uel": 2014,
      "stree": 2015,
      "express": 2016,
      "hip": 2017,
      "anger": 2018,
      "conf": 2019,
      "announced": 2020,
      "following": 2021,
      "explo": 2022,
      "pict": 2023,
      "board": 2024,
      "serv": 2025,
      "return": 2026,
      "Sup": 2027,
      "ening": 2028,
      "ping": 2029,
      "bas": 2030,
      "ott": 2031,
      "agency": 2032,
      "60": 2033,
      "students": 2034,
      "Sc": 2035,
      "arri": 2036,
      "seven": 2037,
      "),": 2038,
      "Micha": 2039,
      "neigh": 2040,
      "Israel": 2041,
      "billion": 2042,
      "cil": 2043,
      "problem": 2044,
      "tal": 2045,
      "heart": 2046,
      "fully": 2047,
      "west": 2048,
      "dle": 2049,
      "International": 2050,
      "serious": 2051,
      "lines": 2052,
      "ices": 2053,
      "sw": 2054,
      "ino": 2055,
      "Te": 2056,
      "aper": 2057,
      "Court": 2058,
      "stead": 2059,
      "Tur": 2060,
      "boy": 2061,
      "Afghanistan": 2062,
      "agree": 2063,
      "ED": 2064,
      "plane": 2065,
      "happened": 2066,
      "ford": 2067,
      "cust": 2068,
      "Michael": 2069,
      "Sep": 2070,
      "uary": 2071,
      "peace": 2072,
      "involved": 2073,
      "bad": 2074,
      "course": 2075,
      "June": 2076,
      "pain": 2077,
      "vote": 2078,
      "covered": 2079,
      "depend": 2080,
      "disc": 2081,
      "region": 2082,
      "champ": 2083,
      "himself": 2084,
      "SA": 2085,
      "yet": 2086,
      "rench": 2087,
      "accused": 2088,
      "miles": 2089,
      "states": 2090,
      "ream": 2091,
      "David": 2092,
      "cretary": 2093,
      "ida": 2094,
      "2008": 2095,
      "ades": 2096,
      "African": 2097,
      "policy": 2098,
      "grand": 2099,
      "ots": 2100,
      "loc": 2101,
      "County": 2102,
      "assa": 2103,
      "News": 2104,
      "San": 2105,
      "nearly": 2106,
      "Clint": 2107,
      "batt": 2108,
      "chief": 2109,
      "economic": 2110,
      "almost": 2111,
      "inese": 2112,
      "cked": 2113,
      "War": 2114,
      "rem": 2115,
      "heard": 2116,
      "reports": 2117,
      "morning": 2118,
      "glo": 2119,
      "within": 2120,
      "itions": 2121,
      "2009": 2122,
      "role": 2123,
      "suggest": 2124,
      "sim": 2125,
      "moved": 2126,
      "Can": 2127,
      "Lo": 2128,
      "ij": 2129,
      "diffic": 2130,
      "198": 2131,
      "aster": 2132,
      "emb": 2133,
      "cele": 2134,
      "NEW": 2135,
      "Korea": 2136,
      "ked": 2137,
      "cit": 2138,
      "hood": 2139,
      "officers": 2140,
      "dies": 2141,
      "fell": 2142,
      "ulation": 2143,
      "flu": 2144,
      "Egy": 2145,
      "wind": 2146,
      "Ken": 2147,
      "confir": 2148,
      "Chinese": 2149,
      "hor": 2150,
      "minutes": 2151,
      "calls": 2152,
      "someone": 2153,
      "Egypt": 2154,
      "Oc": 2155,
      "mal": 2156,
      "audi": 2157,
      "anti": 2158,
      "cases": 2159,
      "shows": 2160,
      "medical": 2161,
      "March": 2162,
      "hus": 2163,
      "Flor": 2164,
      "ston": 2165,
      "compan": 2166,
      "bul": 2167,
      "Ange": 2168,
      "uses": 2169,
      "King": 2170,
      "immedi": 2171,
      "Ad": 2172,
      "Senate": 2173,
      "ousands": 2174,
      "fel": 2175,
      "release": 2176,
      "Gen": 2177,
      "dou": 2178,
      "Clinton": 2179,
      "candid": 2180,
      "mag": 2181,
      "French": 2182,
      "understand": 2183,
      "European": 2184,
      "sty": 2185,
      "Do": 2186,
      "Miss": 2187,
      "celebr": 2188,
      "played": 2189,
      "charged": 2190,
      "educ": 2191,
      "access": 2192,
      "husband": 2193,
      "mass": 2194,
      "January": 2195,
      "ager": 2196,
      "sell": 2197,
      "bi": 2198,
      "ben": 2199,
      "tele": 2200,
      "Jackson": 2201,
      "profess": 2202,
      "Med": 2203,
      "indust": 2204,
      "website": 2205,
      "lies": 2206,
      "Ex": 2207,
      "member": 2208,
      "sed": 2209,
      "July": 2210,
      "atives": 2211,
      "ensive": 2212,
      "music": 2213,
      "meas": 2214,
      "fund": 2215,
      "erry": 2216,
      "scre": 2217,
      "According": 2218,
      "victims": 2219,
      "potential": 2220,
      "Cor": 2221,
      "ults": 2222,
      "selves": 2223,
      "personal": 2224,
      "Florida": 2225,
      "tember": 2226,
      "previous": 2227,
      "ilar": 2228,
      "September": 2229,
      "simp": 2230,
      "appeared": 2231,
      "makes": 2232,
      "wood": 2233,
      "ron": 2234,
      "anything": 2235,
      "respon": 2236,
      "couple": 2237,
      "seek": 2238,
      "situation": 2239,
      "adv": 2240,
      "capital": 2241,
      "leave": 2242,
      "troops": 2243,
      "received": 2244,
      "avy": 2245,
      "iety": 2246,
      "Am": 2247,
      "rup": 2248,
      "product": 2249,
      "families": 2250,
      "Aug": 2251,
      "wards": 2252,
      "recently": 2253,
      "football": 2254,
      "lawy": 2255,
      "administration": 2256,
      "foreign": 2257,
      "ored": 2258,
      "wer": 2259,
      "soldi": 2260,
      "spir": 2261,
      "ata": 2262,
      "research": 2263,
      "conne": 2264,
      ").": 2265,
      "popular": 2266,
      "risk": 2267,
      "ibility": 2268,
      "Watch": 2269,
      "wasn": 2270,
      "Eng": 2271,
      "respond": 2272,
      "24": 2273,
      "represent": 2274,
      "itional": 2275,
      "argu": 2276,
      "players": 2277,
      "Cup": 2278,
      "ference": 2279,
      "difficult": 2280,
      "Au": 2281,
      "online": 2282,
      "Paul": 2283,
      "immig": 2284,
      "oil": 2285,
      "problems": 2286,
      "witter": 2287,
      "ium": 2288,
      "Austral": 2289,
      "goal": 2290,
      "eight": 2291,
      "August": 2292,
      "sal": 2293,
      "gas": 2294,
      "non": 2295,
      "Last": 2296,
      "East": 2297,
      "Apr": 2298,
      "space": 2299,
      "nothing": 2300,
      "gave": 2301,
      "William": 2302,
      "urch": 2303,
      "Republicans": 2304,
      "April": 2305,
      "Muslim": 2306,
      "killing": 2307,
      "ature": 2308,
      "reason": 2309,
      "workers": 2310,
      "mail": 2311,
      "Twitter": 2312,
      "stu": 2313,
      "project": 2314,
      "crash": 2315,
      "Mart": 2316,
      "fav": 2317,
      "address": 2318,
      "lymp": 2319,
      "Minister": 2320,
      "Olymp": 2321,
      "inside": 2322,
      "detail": 2323,
      "tried": 2324,
      "whose": 2325,
      "suit": 2326,
      "pecial": 2327,
      "Arab": 2328,
      "surv": 2329,
      "More": 2330,
      "deli": 2331,
      "Ed": 2332,
      "judge": 2333,
      "further": 2334,
      "fig": 2335,
      "sl": 2336,
      "Don": 2337,
      "Po": 2338,
      "ring": 2339,
      "quick": 2340,
      "Russian": 2341,
      "officer": 2342,
      "ple": 2343,
      "ither": 2344,
      "cell": 2345,
      "Now": 2346,
      "Tex": 2347,
      "means": 2348,
      "Ma": 2349,
      "70": 2350,
      "init": 2351,
      "Res": 2352,
      "fans": 2353,
      "vember": 2354,
      "worked": 2355,
      "remains": 2356,
      "omin": 2357,
      "November": 2358,
      "discuss": 2359,
      "citiz": 2360,
      "pan": 2361,
      "living": 2362,
      "unity": 2363,
      "proper": 2364,
      "super": 2365,
      "market": 2366,
      "beat": 2367,
      "bir": 2368,
      "oud": 2369,
      "ming": 2370,
      "Ho": 2371,
      "Mexico": 2372,
      "bel": 2373,
      "plic": 2374,
      "roll": 2375,
      "nuclear": 2376,
      "begin": 2377,
      "shooting": 2378,
      "ung": 2379,
      "forts": 2380,
      "cru": 2381,
      "However": 2382,
      "demand": 2383,
      "stitution": 2384,
      "cris": 2385,
      "points": 2386,
      "mis": 2387,
      "aut": 2388,
      "border": 2389,
      "journal": 2390,
      "Dr": 2391,
      "ken": 2392,
      "push": 2393,
      "?\"": 2394,
      "defense": 2395,
      "ues": 2396,
      "tion": 2397,
      "Uk": 2398,
      "ays": 2399,
      "passeng": 2400,
      "thousands": 2401,
      "series": 2402,
      "affect": 2403,
      "check": 2404,
      "cing": 2405,
      "plans": 2406,
      "ners": 2407,
      "ctions": 2408,
      "rew": 2409,
      "relation": 2410,
      "forward": 2411,
      "undred": 2412,
      "carry": 2413,
      "soon": 2414,
      "track": 2415,
      "flight": 2416,
      "roy": 2417,
      "condu": 2418,
      "Texas": 2419,
      "draw": 2420,
      "experience": 2421,
      "weapons": 2422,
      "Ear": 2423,
      "ech": 2424,
      "areas": 2425,
      "presidential": 2426,
      "expla": 2427,
      "France": 2428,
      "tober": 2429,
      "safety": 2430,
      "22": 2431,
      "tre": 2432,
      "lying": 2433,
      "general": 2434,
      "Ham": 2435,
      "due": 2436,
      "needs": 2437,
      "tw": 2438,
      "bru": 2439,
      "finan": 2440,
      "England": 2441,
      "everything": 2442,
      "meeting": 2443,
      "October": 2444,
      "demon": 2445,
      "ify": 2446,
      "Tim": 2447,
      "staff": 2448,
      "prevent": 2449,
      "Bra": 2450,
      "wrong": 2451,
      "Pl": 2452,
      "economy": 2453,
      "complete": 2454,
      "El": 2455,
      "white": 2456,
      "efforts": 2457,
      "pul": 2458,
      "itor": 2459,
      "works": 2460,
      "Dece": 2461,
      "tic": 2462,
      "itive": 2463,
      "hic": 2464,
      "spent": 2465,
      "pick": 2466,
      "eda": 2467,
      "actually": 2468,
      "December": 2469,
      "particular": 2470,
      "opport": 2471,
      "kids": 2472,
      "gets": 2473,
      "range": 2474,
      "critic": 2475,
      "similar": 2476,
      "EST": 2477,
      "described": 2478,
      "aled": 2479,
      "fighting": 2480,
      "provide": 2481,
      "hotel": 2482,
      "Center": 2483,
      "male": 2484,
      "sea": 2485,
      "speak": 2486,
      "orig": 2487,
      "teen": 2488,
      "NA": 2489,
      "Hu": 2490,
      "indic": 2491,
      "divid": 2492,
      "reve": 2493,
      "center": 2494,
      "running": 2495,
      "Syrian": 2496,
      "ament": 2497,
      "matter": 2498,
      "include": 2499,
      "impro": 2500,
      "Romney": 2501,
      "brought": 2502,
      "private": 2503,
      "moment": 2504,
      "else": 2505,
      "vehic": 2506,
      "ctors": 2507,
      "kets": 2508,
      "claims": 2509,
      "anim": 2510,
      "quar": 2511,
      "respect": 2512,
      "weekend": 2513,
      "mental": 2514,
      "companies": 2515,
      "hur": 2516,
      "mind": 2517,
      "ising": 2518,
      "Part": 2519,
      "Sch": 2520,
      "leading": 2521,
      "result": 2522,
      "crow": 2523,
      "susp": 2524,
      "career": 2525,
      "demonstr": 2526,
      "relationship": 2527,
      "witness": 2528,
      "knew": 2529,
      "share": 2530,
      "abo": 2531,
      "guil": 2532,
      "Two": 2533,
      "graph": 2534,
      "ahead": 2535,
      "wound": 2536,
      "Los": 2537,
      "aur": 2538,
      "dog": 2539,
      "aving": 2540,
      "ener": 2541,
      "message": 2542,
      "aily": 2543,
      "pract": 2544,
      "response": 2545,
      "showed": 2546,
      "claimed": 2547,
      "reporters": 2548,
      "iger": 2549,
      "People": 2550,
      "Qa": 2551,
      "Sm": 2552,
      "marri": 2553,
      "App": 2554,
      "League": 2555,
      "individ": 2556,
      "asing": 2557,
      "var": 2558,
      "speech": 2559,
      "opposition": 2560,
      "missing": 2561,
      "lect": 2562,
      "felt": 2563,
      "perfor": 2564,
      "21": 2565,
      "helped": 2566,
      "za": 2567,
      "idea": 2568,
      "Char": 2569,
      "Des": 2570,
      "movie": 2571,
      "themselves": 2572,
      "Qaeda": 2573,
      "isn": 2574,
      "wants": 2575,
      "strugg": 2576,
      "ISIS": 2577,
      "benef": 2578,
      "request": 2579,
      "scene": 2580,
      "comb": 2581,
      "born": 2582,
      "latest": 2583,
      "equ": 2584,
      "named": 2585,
      "FA": 2586,
      "crisis": 2587,
      "questions": 2588,
      "charac": 2589,
      "everyone": 2590,
      "needed": 2591,
      "Mal": 2592,
      "enced": 2593,
      "tellig": 2594,
      "gain": 2595,
      "sou": 2596,
      "oura": 2597,
      "ances": 2598,
      "danger": 2599,
      "neighbor": 2600,
      "ado": 2601,
      "lin": 2602,
      "Democrats": 2603,
      "Phil": 2604,
      "champion": 2605,
      "senior": 2606,
      "forced": 2607,
      "crime": 2608,
      "Sha": 2609,
      "chance": 2610,
      "cir": 2611,
      "ties": 2612,
      "OP": 2613,
      "sto": 2614,
      "depart": 2615,
      "iding": 2616,
      "23": 2617,
      "cogn": 2618,
      "Mur": 2619,
      "deep": 2620,
      "base": 2621,
      "abor": 2622,
      "Bush": 2623,
      "estim": 2624,
      "bruary": 2625,
      "February": 2626,
      "publ": 2627,
      "inst": 2628,
      "temp": 2629,
      "opin": 2630,
      "capt": 2631,
      "hear": 2632,
      "stat": 2633,
      "favor": 2634,
      "pecially": 2635,
      "reform": 2636,
      "Dan": 2637,
      "especially": 2638,
      "placed": 2639,
      "Security": 2640,
      "anyone": 2641,
      "Mad": 2642,
      "India": 2643,
      "iff": 2644,
      "struct": 2645,
      "Liby": 2646,
      "BC": 2647,
      "soc": 2648,
      "Bro": 2649,
      "avail": 2650,
      "deter": 2651,
      "Ber": 2652,
      "industry": 2653,
      "defend": 2654,
      "victory": 2655,
      "500": 2656,
      "sey": 2657,
      "2007": 2658,
      "minister": 2659,
      "Angeles": 2660,
      "despite": 2661,
      "playing": 2662,
      "assist": 2663,
      "hundred": 2664,
      "cannot": 2665,
      "craft": 2666,
      "sha": 2667,
      "worth": 2668,
      "mark": 2669,
      "nel": 2670,
      "Democratic": 2671,
      "hearing": 2672,
      "Brown": 2673,
      "gent": 2674,
      "figh": 2675,
      "conserv": 2676,
      "global": 2677,
      "eli": 2678,
      "Many": 2679,
      "study": 2680,
      "attention": 2681,
      "wed": 2682,
      "cross": 2683,
      "counter": 2684,
      "na": 2685,
      "Hill": 2686,
      "Tal": 2687,
      "pil": 2688,
      "pie": 2689,
      "occur": 2690,
      "repe": 2691,
      "Park": 2692,
      "allowed": 2693,
      "UK": 2694,
      "compla": 2695,
      "charge": 2696,
      "rom": 2697,
      "operation": 2698,
      "viron": 2699,
      "jail": 2700,
      "data": 2701,
      "spot": 2702,
      "account": 2703,
      "George": 2704,
      "link": 2705,
      "Fo": 2706,
      "Ass": 2707,
      "tor": 2708,
      "dol": 2709,
      "lant": 2710,
      "Web": 2711,
      "loss": 2712,
      "ires": 2713,
      "ov": 2714,
      "effort": 2715,
      "wel": 2716,
      "blood": 2717,
      "financial": 2718,
      "source": 2719,
      "These": 2720,
      "ada": 2721,
      "decided": 2722,
      "Fed": 2723,
      "Carol": 2724,
      "Mid": 2725,
      "Not": 2726,
      "page": 2727,
      "ificant": 2728,
      "han": 2729,
      "arm": 2730,
      "guilty": 2731,
      "believed": 2732,
      "broad": 2733,
      "girls": 2734,
      "isl": 2735,
      "ease": 2736,
      "employe": 2737,
      "ends": 2738,
      "sexual": 2739,
      "raised": 2740,
      "Lu": 2741,
      "Barack": 2742,
      "common": 2743,
      "cli": 2744,
      "events": 2745,
      "telligence": 2746,
      "stage": 2747,
      "Britain": 2748,
      "failed": 2749,
      "Rich": 2750,
      "Def": 2751,
      "mitted": 2752,
      "bably": 2753,
      "injured": 2754,
      "criminal": 2755,
      "approach": 2756,
      "challeng": 2757,
      "residents": 2758,
      "mob": 2759,
      "Atlant": 2760,
      "ample": 2761,
      "treatment": 2762,
      "tru": 2763,
      "organization": 2764,
      "available": 2765,
      "Gre": 2766,
      "hy": 2767,
      "Author": 2768,
      "ded": 2769,
      "Ben": 2770,
      "tom": 2771,
      "ola": 2772,
      "Day": 2773,
      "actions": 2774,
      "sched": 2775,
      "phys": 2776,
      "recogn": 2777,
      "expressed": 2778,
      "significant": 2779,
      "ane": 2780,
      "pack": 2781,
      "paid": 2782,
      "confl": 2783,
      "pose": 2784,
      "Br": 2785,
      "squ": 2786,
      "whole": 2787,
      "relig": 2788,
      "storm": 2789,
      "fra": 2790,
      "crew": 2791,
      "largest": 2792,
      "fill": 2793,
      "hon": 2794,
      "ky": 2795,
      "ount": 2796,
      "door": 2797,
      "words": 2798,
      "marriage": 2799,
      "huge": 2800,
      "ell": 2801,
      "birth": 2802,
      "ients": 2803,
      "refer": 2804,
      "insur": 2805,
      "BI": 2806,
      "single": 2807,
      "separ": 2808,
      "technology": 2809,
      "fast": 2810,
      "fair": 2811,
      "Secretary": 2812,
      "berg": 2813,
      "independ": 2814,
      "chair": 2815,
      "pret": 2816,
      "accident": 2817,
      "player": 2818,
      "box": 2819,
      "26": 2820,
      "probably": 2821,
      "consider": 2822,
      "immediately": 2823,
      "longer": 2824,
      "cancer": 2825,
      "however": 2826,
      "continued": 2827,
      "gone": 2828,
      "hands": 2829,
      "cul": 2830,
      "caused": 2831,
      "review": 2832,
      "parts": 2833,
      "izing": 2834,
      "kept": 2835,
      "ently": 2836,
      "entire": 2837,
      "related": 2838,
      "pun": 2839,
      "student": 2840,
      "training": 2841,
      "Ha": 2842,
      "stra": 2843,
      "supp": 2844,
      "soldiers": 2845,
      "growing": 2846,
      "biggest": 2847,
      "avo": 2848,
      "tained": 2849,
      "station": 2850,
      "ulture": 2851,
      "takes": 2852,
      "ilities": 2853,
      "coach": 2854,
      "Wal": 2855,
      "brother": 2856,
      "document": 2857,
      "battle": 2858,
      "inv": 2859,
      "27": 2860,
      "mill": 2861,
      "impact": 2862,
      "Per": 2863,
      "create": 2864,
      "build": 2865,
      "custom": 2866,
      "Pat": 2867,
      "Jer": 2868,
      "surve": 2869,
      "Mor": 2870,
      "rather": 2871,
      "icide": 2872,
      "Mil": 2873,
      "Braz": 2874,
      "fle": 2875,
      "newsp": 2876,
      "debate": 2877,
      "Health": 2878,
      "homes": 2879,
      "offer": 2880,
      "ival": 2881,
      "happy": 2882,
      "Martin": 2883,
      "Israeli": 2884,
      "clim": 2885,
      "giving": 2886,
      "Even": 2887,
      "issued": 2888,
      "28": 2889,
      "protesters": 2890,
      "sense": 2891,
      "bot": 2892,
      "abl": 2893,
      "lands": 2894,
      "happen": 2895,
      "Council": 2896,
      "feet": 2897,
      "Ale": 2898,
      "necess": 2899,
      "legisl": 2900,
      "ches": 2901,
      "Lou": 2902,
      "trip": 2903,
      "PD": 2904,
      "Read": 2905,
      "title": 2906,
      "conference": 2907,
      "GOP": 2908,
      "included": 2909,
      "uries": 2910,
      "counts": 2911,
      "attemp": 2912,
      "changed": 2913,
      "Apple": 2914,
      "James": 2915,
      "McC": 2916,
      "ogle": 2917,
      "forcement": 2918,
      "winning": 2919,
      "armed": 2920,
      "executive": 2921,
      "laws": 2922,
      "pred": 2923,
      "nine": 2924,
      "Sam": 2925,
      "strate": 2926,
      "services": 2927,
      "joy": 2928,
      "FBI": 2929,
      "mult": 2930,
      "lack": 2931,
      "redu": 2932,
      "sound": 2933,
      "acts": 2934,
      "pressure": 2935,
      "aver": 2936,
      "sle": 2937,
      "condition": 2938,
      "glish": 2939,
      "education": 2940,
      "song": 2941,
      ".’": 2942,
      "controvers": 2943,
      "east": 2944,
      "passed": 2945,
      "toward": 2946,
      "Cent": 2947,
      "iod": 2948,
      "contain": 2949,
      "defin": 2950,
      "north": 2951,
      "Brazil": 2952,
      "identified": 2953,
      "Qu": 2954,
      "Google": 2955,
      "ively": 2956,
      "weet": 2957,
      "comments": 2958,
      "contact": 2959,
      "die": 2960,
      "confirmed": 2961,
      "fear": 2962,
      "iban": 2963,
      "minute": 2964,
      "table": 2965,
      "ya": 2966,
      "emergency": 2967,
      "2013": 2968,
      "mist": 2969,
      "Internet": 2970,
      "Prime": 2971,
      "English": 2972,
      "zer": 2973,
      "reedom": 2974,
      "lawyer": 2975,
      "games": 2976,
      "80": 2977,
      "Taliban": 2978,
      "served": 2979,
      "Red": 2980,
      "Every": 2981,
      "summer": 2982,
      "decades": 2983,
      "jobs": 2984,
      "rate": 2985,
      "Justice": 2986,
      "san": 2987,
      "quickly": 2988,
      "ceed": 2989,
      "energy": 2990,
      "Palest": 2991,
      "calling": 2992,
      "letter": 2993,
      "changes": 2994,
      "cks": 2995,
      "environ": 2996,
      "shop": 2997,
      "ift": 2998,
      "justice": 2999,
      "Union": 3000,
      "raine": 3001,
      "camer": 3002,
      "television": 3003,
      "Fore": 3004,
      "wish": 3005,
      "ille": 3006,
      "umb": 3007,
      "pair": 3008,
      "convic": 3009,
      "enge": 3010,
      ".,": 3011,
      "grad": 3012,
      "plant": 3013,
      "aim": 3014,
      "establ": 3015,
      "flood": 3016,
      "users": 3017,
      "ump": 3018,
      "voters": 3019,
      "Vir": 3020,
      "patients": 3021,
      "spending": 3022,
      "arent": 3023,
      "deaths": 3024,
      "true": 3025,
      "iate": 3026,
      "spect": 3027,
      "protests": 3028,
      "population": 3029,
      "lied": 3030,
      "moder": 3031,
      "communic": 3032,
      "Val": 3033,
      "abuse": 3034,
      "regime": 3035,
      "passengers": 3036,
      "conditions": 3037,
      "rich": 3038,
      "period": 3039,
      "bra": 3040,
      "sole": 3041,
      "goes": 3042,
      "date": 3043,
      "prim": 3044,
      "rap": 3045,
      "Ukraine": 3046,
      "created": 3047,
      "influ": 3048,
      "hundreds": 3049,
      "Army": 3050,
      "ery": 3051,
      "considered": 3052,
      "explos": 3053,
      "airport": 3054,
      "Smith": 3055,
      "vast": 3056,
      "convicted": 3057,
      "bank": 3058,
      "returned": 3059,
      "Thom": 3060,
      "seems": 3061,
      "Germany": 3062,
      "lie": 3063,
      "ably": 3064,
      "disease": 3065,
      "uni": 3066,
      "couldn": 3067,
      "prep": 3068,
      "reas": 3069,
      "church": 3070,
      "Why": 3071,
      "conflict": 3072,
      "Op": 3073,
      "sport": 3074,
      "either": 3075,
      "example": 3076,
      "closed": 3077,
      "197": 3078,
      "opportunity": 3079,
      "Our": 3080,
      "Sal": 3081,
      "pon": 3082,
      "Georg": 3083,
      "bud": 3084,
      "focus": 3085,
      "details": 3086,
      "ples": 3087,
      "bes": 3088,
      "itch": 3089,
      "advis": 3090,
      "2006": 3091,
      "itself": 3092,
      "spoke": 3093,
      "suffered": 3094,
      "looked": 3095,
      "allegedly": 3096,
      "cis": 3097,
      "exam": 3098,
      "contract": 3099,
      "Sand": 3100,
      "remember": 3101,
      "zing": 3102,
      "Mark": 3103,
      "buy": 3104,
      "posted": 3105,
      "train": 3106,
      "resol": 3107,
      "yn": 3108,
      "Act": 3109,
      "intelligence": 3110,
      "majority": 3111,
      "arian": 3112,
      "Party": 3113,
      "II": 3114,
      "mater": 3115,
      "sequ": 3116,
      "tition": 3117,
      "south": 3118,
      "results": 3119,
      "bri": 3120,
      "opened": 3121,
      "vill": 3122,
      "accept": 3123,
      "compu": 3124,
      "hest": 3125,
      "drugs": 3126,
      "Bel": 3127,
      "shut": 3128,
      "initial": 3129,
      "total": 3130,
      "performan": 3131,
      "denied": 3132,
      "followed": 3133,
      "command": 3134,
      "target": 3135,
      "inary": 3136,
      "bag": 3137,
      "written": 3138,
      "Palestin": 3139,
      "olf": 3140,
      "Korean": 3141,
      "Most": 3142,
      "CE": 3143,
      "agreed": 3144,
      "concerns": 3145,
      "Fer": 3146,
      "particip": 3147,
      "moving": 3148,
      "clus": 3149,
      "struction": 3150,
      "era": 3151,
      "ishing": 3152,
      "negot": 3153,
      "spokeswoman": 3154,
      "instead": 3155,
      "bey": 3156,
      "gree": 3157,
      "baby": 3158,
      "word": 3159,
      "photos": 3160,
      "fat": 3161,
      "smo": 3162,
      "weather": 3163,
      "ador": 3164,
      "famous": 3165,
      "sociation": 3166,
      "Virgin": 3167,
      "cities": 3168,
      "network": 3169,
      "exc": 3170,
      "agreement": 3171,
      "extreme": 3172,
      "elections": 3173,
      "enforcement": 3174,
      "allegations": 3175,
      "talking": 3176,
      "plom": 3177,
      "29": 3178,
      "character": 3179,
      "amb": 3180,
      "uled": 3181,
      "simply": 3182,
      "pointed": 3183,
      "Bur": 3184,
      "style": 3185,
      "atory": 3186,
      "cred": 3187,
      "democr": 3188,
      "doz": 3189,
      "documents": 3190,
      "citizens": 3191,
      "bing": 3192,
      "fit": 3193,
      "teach": 3194,
      "trou": 3195,
      "increase": 3196,
      "streets": 3197,
      "terrorist": 3198,
      "Tom": 3199,
      "leaving": 3200,
      "jury": 3201,
      "drink": 3202,
      "street": 3203,
      "Niger": 3204,
      "Tra": 3205,
      "coast": 3206,
      "histor": 3207,
      "apparent": 3208,
      "faces": 3209,
      "talks": 3210,
      "typ": 3211,
      "hair": 3212,
      "responsible": 3213,
      "Ri": 3214,
      "pted": 3215,
      "analy": 3216,
      "German": 3217,
      "Off": 3218,
      "Black": 3219,
      "affil": 3220,
      "spread": 3221,
      "touch": 3222,
      "haps": 3223,
      "ani": 3224,
      "Kim": 3225,
      "tough": 3226,
      "deliver": 3227,
      "porter": 3228,
      "Jud": 3229,
      "cup": 3230,
      "fa": 3231,
      "opening": 3232,
      "hero": 3233,
      "terms": 3234,
      "memor": 3235,
      "achie": 3236,
      "Ano": 3237,
      "ald": 3238,
      "tempt": 3239,
      "ials": 3240,
      "launch": 3241,
      "damage": 3242,
      "poor": 3243,
      "Offic": 3244,
      "Another": 3245,
      "yan": 3246,
      "ker": 3247,
      "immigration": 3248,
      "recover": 3249,
      "standing": 3250,
      "hous": 3251,
      "sil": 3252,
      "Bill": 3253,
      "ountain": 3254,
      "dad": 3255,
      "sla": 3256,
      "scient": 3257,
      "extra": 3258,
      "newspaper": 3259,
      "Sa": 3260,
      "beha": 3261,
      "angu": 3262,
      "quality": 3263,
      "determin": 3264,
      "challenge": 3265,
      "ara": 3266,
      "exist": 3267,
      "makers": 3268,
      "erson": 3269,
      "Commit": 3270,
      "gather": 3271,
      "lad": 3272,
      "alone": 3273,
      "sites": 3274,
      "store": 3275,
      "promot": 3276,
      "Bay": 3277,
      "natur": 3278,
      "35": 3279,
      "movement": 3280,
      "rant": 3281,
      "aircraft": 3282,
      "sentence": 3283,
      "gold": 3284,
      "pool": 3285,
      "God": 3286,
      "clean": 3287,
      "stic": 3288,
      "liament": 3289,
      "slow": 3290,
      "weight": 3291,
      "inno": 3292,
      "adding": 3293,
      "Islamic": 3294,
      "diplom": 3295,
      "ray": 3296,
      "Robert": 3297,
      "regard": 3298,
      "spr": 3299,
      "Spe": 3300,
      "noon": 3301,
      "45": 3302,
      "Nations": 3303,
      "iet": 3304,
      "ipp": 3305,
      "believes": 3306,
      "Georgia": 3307,
      "veter": 3308,
      "arrived": 3309,
      "amed": 3310,
      "finding": 3311,
      "Cr": 3312,
      "doctors": 3313,
      "sn": 3314,
      "increasing": 3315,
      "published": 3316,
      "fighters": 3317,
      "ike": 3318,
      "ption": 3319,
      "conduct": 3320,
      "Ari": 3321,
      "penal": 3322,
      "dollar": 3323,
      "Su": 3324,
      "aging": 3325,
      "firm": 3326,
      "Since": 3327,
      "Oh": 3328,
      "mas": 3329,
      "reli": 3330,
      "progress": 3331,
      "ruling": 3332,
      "Carolina": 3333,
      "fired": 3334,
      "Open": 3335,
      "organiz": 3336,
      "fan": 3337,
      "appeal": 3338,
      "fuel": 3339,
      "strike": 3340,
      "Williams": 3341,
      "ari": 3342,
      "includes": 3343,
      "loved": 3344,
      "quite": 3345,
      "Som": 3346,
      "agement": 3347,
      "rif": 3348,
      "dict": 3349,
      "Then": 3350,
      "gay": 3351,
      "illegal": 3352,
      "vention": 3353,
      "college": 3354,
      "injuries": 3355,
      "Ke": 3356,
      "ows": 3357,
      "emot": 3358,
      "brid": 3359,
      "ester": 3360,
      "currently": 3361,
      "lled": 3362,
      "filed": 3363,
      "encoura": 3364,
      "built": 3365,
      "places": 3366,
      "supporters": 3367,
      "schools": 3368,
      "Spain": 3369,
      "90": 3370,
      "manager": 3371,
      "behavi": 3372,
      "General": 3373,
      "specific": 3374,
      "Louis": 3375,
      "warning": 3376,
      "Richard": 3377,
      "Wil": 3378,
      "High": 3379,
      "sat": 3380,
      "voice": 3381,
      "Gar": 3382,
      "wall": 3383,
      "doctor": 3384,
      "dream": 3385,
      "Cap": 3386,
      "IA": 3387,
      "engine": 3388,
      "offered": 3389,
      "sof": 3390,
      "utin": 3391,
      "launched": 3392,
      "price": 3393,
      "experts": 3394,
      "assault": 3395,
      "RE": 3396,
      "hopes": 3397,
      "married": 3398,
      "driver": 3399,
      "reached": 3400,
      "female": 3401,
      "Champ": 3402,
      "Law": 3403,
      "Supreme": 3404,
      "arms": 3405,
      "ender": 3406,
      "experi": 3407,
      "actor": 3408,
      "driving": 3409,
      "Committee": 3410,
      "subject": 3411,
      "higher": 3412,
      "successful": 3413,
      "tern": 3414,
      "culture": 3415,
      "restaur": 3416,
      "park": 3417,
      "School": 3418,
      "Port": 3419,
      "stories": 3420,
      "snow": 3421,
      "196": 3422,
      "middle": 3423,
      "dangerous": 3424,
      "Authorities": 3425,
      "tournam": 3426,
      "millions": 3427,
      "rules": 3428,
      "load": 3429,
      "dem": 3430,
      "bid": 3431,
      "stitute": 3432,
      "appearance": 3433,
      "central": 3434,
      "regular": 3435,
      "exact": 3436,
      "Australia": 3437,
      "easy": 3438,
      "scheduled": 3439,
      "ande": 3440,
      "Moham": 3441,
      "admitted": 3442,
      "numbers": 3443,
      "Kar": 3444,
      "marks": 3445,
      "beaut": 3446,
      "raise": 3447,
      "speed": 3448,
      "turning": 3449,
      "amount": 3450,
      "pretty": 3451,
      "heavy": 3452,
      "carried": 3453,
      "ull": 3454,
      "Lib": 3455,
      "responsibility": 3456,
      "Hong": 3457,
      "above": 3458,
      "announce": 3459,
      "Olympic": 3460,
      "ki": 3461,
      "Despite": 3462,
      "ison": 3463,
      "zy": 3464,
      "arily": 3465,
      "bels": 3466,
      "tens": 3467,
      "surround": 3468,
      "politics": 3469,
      "lived": 3470,
      "Peter": 3471,
      "Em": 3472,
      "2014": 3473,
      "candidate": 3474,
      "ories": 3475,
      "suicide": 3476,
      "US": 3477,
      "During": 3478,
      "Service": 3479,
      "development": 3480,
      "dress": 3481,
      "Middle": 3482,
      "investigators": 3483,
      "ny": 3484,
      "labor": 3485,
      "avoid": 3486,
      "signed": 3487,
      "fellow": 3488,
      "particularly": 3489,
      "Johnson": 3490,
      "Alex": 3491,
      "ession": 3492,
      "appears": 3493,
      "Those": 3494,
      "beyond": 3495,
      "hib": 3496,
      "Lat": 3497,
      "mobile": 3498,
      "minor": 3499,
      "bodies": 3500,
      "Att": 3501,
      "version": 3502,
      "eye": 3503,
      "istry": 3504,
      "sometimes": 3505,
      "operations": 3506,
      "employees": 3507,
      "azine": 3508,
      "Kong": 3509,
      "ordered": 3510,
      "airs": 3511,
      "dig": 3512,
      "Defense": 3513,
      "leadership": 3514,
      "Scott": 3515,
      "prior": 3516,
      "iving": 3517,
      "pound": 3518,
      "poll": 3519,
      "society": 3520,
      "rare": 3521,
      "active": 3522,
      "reet": 3523,
      "wonder": 3524,
      "fourth": 3525,
      "seeing": 3526,
      "crimes": 3527,
      "gic": 3528,
      "Both": 3529,
      "dome": 3530,
      "Ah": 3531,
      "Iraqi": 3532,
      "Mass": 3533,
      "vehicle": 3534,
      "freedom": 3535,
      "parties": 3536,
      "Zim": 3537,
      "iant": 3538,
      "ude": 3539,
      "Mer": 3540,
      "uge": 3541,
      "Atlanta": 3542,
      "stant": 3543,
      "sun": 3544,
      "wouldn": 3545,
      "2005": 3546,
      "!\"": 3547,
      "department": 3548,
      "afternoon": 3549,
      "cars": 3550,
      "Dis": 3551,
      "century": 3552,
      "dom": 3553,
      "ON": 3554,
      "send": 3555,
      "performance": 3556,
      "rule": 3557,
      "planned": 3558,
      "bon": 3559,
      "revealed": 3560,
      "sister": 3561,
      "La": 3562,
      "drive": 3563,
      "cue": 3564,
      "average": 3565,
      "serve": 3566,
      "eth": 3567,
      "attempt": 3568,
      "addition": 3569,
      "Virginia": 3570,
      "vement": 3571,
      "learned": 3572,
      "governor": 3573,
      "ises": 3574,
      "wait": 3575,
      "Human": 3576,
      "ships": 3577,
      "cop": 3578,
      "useum": 3579,
      "sports": 3580,
      "wounded": 3581,
      "whom": 3582,
      "Indian": 3583,
      "looks": 3584,
      "Gree": 3585,
      "Wood": 3586,
      "Trans": 3587,
      "occurred": 3588,
      "images": 3589,
      "langu": 3590,
      "opt": 3591,
      "Times": 3592,
      "mad": 3593,
      "ape": 3594,
      "natural": 3595,
      "asking": 3596,
      "affected": 3597,
      "negoti": 3598,
      "Office": 3599,
      "ba": 3600,
      "Libya": 3601,
      "From": 3602,
      "aters": 3603,
      "although": 3604,
      "bin": 3605,
      "psy": 3606,
      "Mary": 3607,
      "ries": 3608,
      "300": 3609,
      "enjoy": 3610,
      "religious": 3611,
      "dy": 3612,
      "Lad": 3613,
      "Italy": 3614,
      "positive": 3615,
      "finally": 3616,
      "esterday": 3617,
      "uk": 3618,
      "istic": 3619,
      "lose": 3620,
      "photograph": 3621,
      "picture": 3622,
      "convers": 3623,
      "Turkey": 3624,
      "conservative": 3625,
      "Iranian": 3626,
      "lement": 3627,
      "island": 3628,
      "rants": 3629,
      "ange": 3630,
      "crowd": 3631,
      "products": 3632,
      "opinions": 3633,
      "eventually": 3634,
      "committed": 3635,
      "district": 3636,
      "worst": 3637,
      "discovered": 3638,
      "trust": 3639,
      "provided": 3640,
      "fi": 3641,
      "onto": 3642,
      "terrorism": 3643,
      "ATED": 3644,
      "helping": 3645,
      "joined": 3646,
      "acher": 3647,
      "aves": 3648,
      "sold": 3649,
      "secret": 3650,
      "costs": 3651,
      "Street": 3652,
      "reality": 3653,
      "concern": 3654,
      "committee": 3655,
      "growth": 3656,
      "brain": 3657,
      "throughout": 3658,
      "swe": 3659,
      "intro": 3660,
      "sens": 3661,
      "struck": 3662,
      "doub": 3663,
      "surpris": 3664,
      "Span": 3665,
      "comed": 3666,
      "iled": 3667,
      "answer": 3668,
      "ni": 3669,
      "stopped": 3670,
      "lif": 3671,
      "vert": 3672,
      "Today": 3673,
      "chester": 3674,
      "raid": 3675,
      "concerned": 3676,
      "normal": 3677,
      "Paris": 3678,
      "critical": 3679,
      "budget": 3680,
      "names": 3681,
      "irst": 3682,
      "figure": 3683,
      "teams": 3684,
      "prosecutors": 3685,
      "politic": 3686,
      "rise": 3687,
      "sor": 3688,
      "broke": 3689,
      "iple": 3690,
      "brief": 3691,
      "Che": 3692,
      "ID": 3693,
      "via": 3694,
      "Mill": 3695,
      "kick": 3696,
      "screen": 3697,
      "emen": 3698,
      "constitution": 3699,
      "lah": 3700,
      "ito": 3701,
      "tection": 3702,
      "Gul": 3703,
      "violent": 3704,
      "bs": 3705,
      "theast": 3706,
      "hig": 3707,
      "fine": 3708,
      "Ministry": 3709,
      "prime": 3710,
      "bled": 3711,
      "Penn": 3712,
      "lap": 3713,
      "civilians": 3714,
      "perfect": 3715,
      "ula": 3716,
      "winner": 3717,
      "learn": 3718,
      "Ital": 3719,
      "Western": 3720,
      "text": 3721,
      "Association": 3722,
      "comfort": 3723,
      "UPD": 3724,
      "formed": 3725,
      "ources": 3726,
      "nowled": 3727,
      "Pri": 3728,
      "tournament": 3729,
      "Ve": 3730,
      "Mean": 3731,
      "cel": 3732,
      "continues": 3733,
      "original": 3734,
      "2004": 3735,
      "neighborhood": 3736,
      "missed": 3737,
      "powerful": 3738,
      "beginning": 3739,
      "ensure": 3740,
      "ider": 3741,
      "gar": 3742,
      "programs": 3743,
      "militants": 3744,
      "Assad": 3745,
      "telling": 3746,
      "Prince": 3747,
      "UPDATED": 3748,
      "highest": 3749,
      "warned": 3750,
      "seeking": 3751,
      "path": 3752,
      "necessary": 3753,
      "introdu": 3754,
      "stren": 3755,
      "akes": 3756,
      "nations": 3757,
      "encies": 3758,
      "sides": 3759,
      "southern": 3760,
      "revol": 3761,
      "Gover": 3762,
      "bum": 3763,
      "holding": 3764,
      "solely": 3765,
      "Jersey": 3766,
      "Chic": 3767,
      "ashion": 3768,
      "ville": 3769,
      "piece": 3770,
      "omen": 3771,
      "coal": 3772,
      "Sw": 3773,
      "repeated": 3774,
      "Super": 3775,
      "eyes": 3776,
      "arr": 3777,
      "steps": 3778,
      "commer": 3779,
      "Jose": 3780,
      "iel": 3781,
      "tel": 3782,
      "pled": 3783,
      "Although": 3784,
      "Gaz": 3785,
      "propos": 3786,
      "Real": 3787,
      "upd": 3788,
      "Boston": 3789,
      "northern": 3790,
      "utions": 3791,
      "card": 3792,
      "Dist": 3793,
      "stood": 3794,
      "acknowled": 3795,
      "ght": 3796,
      "reser": 3797,
      "owners": 3798,
      "Ron": 3799,
      "Spanish": 3800,
      "require": 3801,
      "aware": 3802,
      "Chris": 3803,
      "Italian": 3804,
      "levels": 3805,
      "Roy": 3806,
      "candidates": 3807,
      "caught": 3808,
      "crack": 3809,
      "Australian": 3810,
      "31": 3811,
      "Foreign": 3812,
      "Sher": 3813,
      "Christian": 3814,
      "annu": 3815,
      "nearby": 3816,
      "cean": 3817,
      "wild": 3818,
      "ijing": 3819,
      "records": 3820,
      "feed": 3821,
      "Que": 3822,
      "aries": 3823,
      "sleep": 3824,
      "streng": 3825,
      "Jim": 3826,
      "earth": 3827,
      "Yemen": 3828,
      "measures": 3829,
      "Gov": 3830,
      "Meanwhile": 3831,
      "Eb": 3832,
      "Beijing": 3833,
      "image": 3834,
      "carrying": 3835,
      "wearing": 3836,
      "recomm": 3837,
      "willing": 3838,
      "Fin": 3839,
      "affiliate": 3840,
      "NAT": 3841,
      "uals": 3842,
      "treated": 3843,
      "ological": 3844,
      "Chicago": 3845,
      "strikes": 3846,
      "equip": 3847,
      "Francis": 3848,
      "stain": 3849,
      "model": 3850,
      "acce": 3851,
      "books": 3852,
      "corrup": 3853,
      "property": 3854,
      "BL": 3855,
      "meant": 3856,
      "domestic": 3857,
      "Saudi": 3858,
      "decade": 3859,
      "faced": 3860,
      "Of": 3861,
      "ga": 3862,
      "lu": 3863,
      "disput": 3864,
      "attend": 3865,
      "resh": 3866,
      "burg": 3867,
      "ission": 3868,
      "computer": 3869,
      "analyst": 3870,
      "join": 3871,
      "Ariz": 3872,
      "lower": 3873,
      "individual": 3874,
      "Net": 3875,
      "AC": 3876,
      "boat": 3877,
      "Kenned": 3878,
      "liber": 3879,
      "uty": 3880,
      "save": 3881,
      "anda": 3882,
      "stress": 3883,
      "Daily": 3884,
      "fix": 3885,
      "noted": 3886,
      "iation": 3887,
      "Lee": 3888,
      "sets": 3889,
      "trade": 3890,
      "mun": 3891,
      "previously": 3892,
      "ultim": 3893,
      "medic": 3894,
      "ena": 3895,
      "quarter": 3896,
      "See": 3897,
      "smart": 3898,
      "imag": 3899,
      "designed": 3900,
      "Other": 3901,
      "evening": 3902,
      "certainly": 3903,
      "thinking": 3904,
      "surger": 3905,
      "severe": 3906,
      "iling": 3907,
      "floor": 3908,
      "Arizona": 3909,
      "lay": 3910,
      "Stud": 3911,
      "circ": 3912,
      "honor": 3913,
      "ota": 3914,
      "quake": 3915,
      "xim": 3916,
      "Holly": 3917,
      "flag": 3918,
      "Kennedy": 3919,
      "NATO": 3920,
      "rob": 3921,
      "insp": 3922,
      "resign": 3923,
      "kidn": 3924,
      "type": 3925,
      "radio": 3926,
      "Sou": 3927,
      "Mrs": 3928,
      "phones": 3929,
      "penalty": 3930,
      "ucky": 3931,
      "rates": 3932,
      "destroy": 3933,
      "ka": 3934,
      "Tri": 3935,
      "Commission": 3936,
      "First": 3937,
      "transport": 3938,
      "seemed": 3939,
      "award": 3940,
      "competition": 3941,
      "sources": 3942,
      "iti": 3943,
      "massive": 3944,
      "nom": 3945,
      "behavior": 3946,
      "tweet": 3947,
      "Japanese": 3948,
      "kil": 3949,
      "injury": 3950,
      "rig": 3951,
      "rock": 3952,
      "owner": 3953,
      "choice": 3954,
      "Green": 3955,
      "ruled": 3956,
      "estimated": 3957,
      "feeling": 3958,
      "guy": 3959,
      "ax": 3960,
      "cure": 3961,
      "Camer": 3962,
      "acqu": 3963,
      "refused": 3964,
      "spend": 3965,
      "knows": 3966,
      "iana": 3967,
      "status": 3968,
      "associ": 3969,
      "Mag": 3970,
      "clash": 3971,
      "modern": 3972,
      "Ebola": 3973,
      "Coast": 3974,
      "block": 3975,
      "paper": 3976,
      "Three": 3977,
      "Rights": 3978,
      "object": 3979,
      "appropri": 3980,
      "boys": 3981,
      "commentary": 3982,
      "reasons": 3983,
      "size": 3984,
      "magazine": 3985,
      "Bu": 3986,
      "twice": 3987,
      "perform": 3988,
      "mical": 3989,
      "additional": 3990,
      "traffic": 3991,
      "33": 3992,
      "blog": 3993,
      "rape": 3994,
      "rebels": 3995,
      "suspected": 3996,
      "perhaps": 3997,
      "din": 3998,
      "Shar": 3999,
      "degree": 4000,
      "Manchester": 4001,
      "Thomas": 4002,
      "mix": 4003,
      "policies": 4004,
      "Report": 4005,
      "green": 4006,
      "ases": 4007,
      "HI": 4008,
      "shire": 4009,
      "assy": 4010,
      "Jones": 4011,
      "ural": 4012,
      "facing": 4013,
      "Pakistani": 4014,
      "watching": 4015,
      "flow": 4016,
      "jok": 4017,
      "Christmas": 4018,
      "tests": 4019,
      "waiting": 4020,
      "measure": 4021,
      "earch": 4022,
      "commission": 4023,
      "Palestinian": 4024,
      "Tour": 4025,
      "detect": 4026,
      "army": 4027,
      "pray": 4028,
      "inated": 4029,
      "reject": 4030,
      "pilot": 4031,
      "receive": 4032,
      "symp": 4033,
      "mayor": 4034,
      "Attorney": 4035,
      "showing": 4036,
      "journalists": 4037,
      "Group": 4038,
      "seas": 4039,
      "cere": 4040,
      "Mexican": 4041,
      "completely": 4042,
      "yesterday": 4043,
      "zone": 4044,
      "sentenced": 4045,
      "structure": 4046,
      "increased": 4047,
      "dropped": 4048,
      "Let": 4049,
      "Tha": 4050,
      "traditional": 4051,
      "myself": 4052,
      "fortun": 4053,
      "insurance": 4054,
      "Chief": 4055,
      "usually": 4056,
      "lets": 4057,
      "roc": 4058,
      "itt": 4059,
      "regul": 4060,
      "hun": 4061,
      "improve": 4062,
      "holid": 4063,
      "Here": 4064,
      "ET": 4065,
      "professional": 4066,
      "psych": 4067,
      "hurt": 4068,
      "PU": 4069,
      "practice": 4070,
      "Their": 4071,
      "broken": 4072,
      "brand": 4073,
      "advoc": 4074,
      "goals": 4075,
      "emy": 4076,
      "custody": 4077,
      "ost": 4078,
      "partner": 4079,
      "refuge": 4080,
      "language": 4081,
      "congress": 4082,
      "answ": 4083,
      "stone": 4084,
      "andal": 4085,
      "consum": 4086,
      "camera": 4087,
      "starting": 4088,
      "Joe": 4089,
      "dark": 4090,
      "iful": 4091,
      "fly": 4092,
      "serving": 4093,
      "zz": 4094,
      "Gaza": 4095,
      "District": 4096,
      "note": 4097,
      "wear": 4098,
      "0s": 4099,
      "iced": 4100,
      "Del": 4101,
      "Gulf": 4102,
      "mat": 4103,
      "verse": 4104,
      "gry": 4105,
      "benefits": 4106,
      "BA": 4107,
      "becoming": 4108,
      "customers": 4109,
      "32": 4110,
      "Wall": 4111,
      "Conne": 4112,
      "debt": 4113,
      "seat": 4114,
      "herself": 4115,
      "cuts": 4116,
      "ISH": 4117,
      "straight": 4118,
      "communities": 4119,
      "Sim": 4120,
      "commercial": 4121,
      "artic": 4122,
      "insist": 4123,
      "truck": 4124,
      "CEO": 4125,
      "solute": 4126,
      "sales": 4127,
      "amid": 4128,
      "independent": 4129,
      "various": 4130,
      "daily": 4131,
      "Murray": 4132,
      "Camp": 4133,
      "Anth": 4134,
      "Chel": 4135,
      "ips": 4136,
      "cat": 4137,
      "phy": 4138,
      "science": 4139,
      "PUBL": 4140,
      "chemical": 4141,
      "older": 4142,
      "47": 4143,
      "corpor": 4144,
      "oul": 4145,
      "tells": 4146,
      "views": 4147,
      "disaster": 4148,
      "province": 4149,
      "ski": 4150,
      "ISHED": 4151,
      "PUBLISHED": 4152,
      "fashion": 4153,
      "pir": 4154,
      "iment": 4155,
      "tempor": 4156,
      "drop": 4157,
      "ancy": 4158,
      "Games": 4159,
      "Color": 4160,
      "Cam": 4161,
      "ko": 4162,
      "wealth": 4163,
      "parliament": 4164,
      "legislation": 4165,
      "Who": 4166,
      "exactly": 4167,
      "neg": 4168,
      "clin": 4169,
      "va": 4170,
      "voted": 4171,
      "shock": 4172,
      "elected": 4173,
      "Former": 4174,
      "relations": 4175,
      "River": 4176,
      "Gad": 4177,
      "lock": 4178,
      "guard": 4179,
      "Putin": 4180,
      "scar": 4181,
      "prem": 4182,
      "prepared": 4183,
      "offers": 4184,
      "McCain": 4185,
      "hack": 4186,
      "los": 4187,
      "simple": 4188,
      "sky": 4189,
      "limited": 4190,
      "planning": 4191,
      "challenges": 4192,
      "surgery": 4193,
      "Boe": 4194,
      "Ali": 4195,
      "profile": 4196,
      "Four": 4197,
      "signs": 4198,
      "Rod": 4199,
      "fee": 4200,
      "lawsuit": 4201,
      "Sing": 4202,
      "Hospital": 4203,
      "professor": 4204,
      "secretary": 4205,
      "rising": 4206,
      "pregn": 4207,
      "Asia": 4208,
      "throw": 4209,
      "rescue": 4210,
      "agon": 4211,
      "cash": 4212,
      "attract": 4213,
      "unte": 4214,
      "Island": 4215,
      "attacked": 4216,
      "required": 4217,
      "Bank": 4218,
      "Anthony": 4219,
      "Er": 4220,
      "agno": 4221,
      "mous": 4222,
      "About": 4223,
      "bail": 4224,
      "rey": 4225,
      "resources": 4226,
      "temper": 4227,
      "pping": 4228,
      "mountain": 4229,
      "plead": 4230,
      "haven": 4231,
      "36": 4232,
      "prise": 4233,
      "mate": 4234,
      "chairman": 4235,
      "Frank": 4236,
      "400": 4237,
      "Agency": 4238,
      "suffering": 4239,
      "bridge": 4240,
      "scen": 4241,
      "Well": 4242,
      "declared": 4243,
      "'.": 4244,
      "ordan": 4245,
      "below": 4246,
      "nic": 4247,
      "favorite": 4248,
      "hang": 4249,
      "laugh": 4250,
      "Over": 4251,
      "sort": 4252,
      "determined": 4253,
      "Sud": 4254,
      "collect": 4255,
      "tainment": 4256,
      "expert": 4257,
      "Bal": 4258,
      "Cur": 4259,
      "stream": 4260,
      "sanctions": 4261,
      "mention": 4262,
      "Argent": 4263,
      "primary": 4264,
      "2003": 4265,
      "lic": 4266,
      "advant": 4267,
      "weak": 4268,
      "log": 4269,
      "Hollywood": 4270,
      "stars": 4271,
      "ceremon": 4272,
      "tts": 4273,
      "difference": 4274,
      "Cast": 4275,
      "beach": 4276,
      "sem": 4277,
      "competit": 4278,
      "dollars": 4279,
      "systems": 4280,
      "upon": 4281,
      "2001": 4282,
      "pulled": 4283,
      "university": 4284,
      "cou": 4285,
      "Massach": 4286,
      "losing": 4287,
      "Ram": 4288,
      "Ryan": 4289,
      "aming": 4290,
      "shown": 4291,
      "Ms": 4292,
      "icop": 4293,
      "usetts": 4294,
      "aling": 4295,
      "Massachusetts": 4296,
      "gives": 4297,
      "guest": 4298,
      "expand": 4299,
      "Sant": 4300,
      "Judge": 4301,
      "fal": 4302,
      "anks": 4303,
      "unch": 4304,
      "connection": 4305,
      "partners": 4306,
      "annual": 4307,
      "semb": 4308,
      "remained": 4309,
      "adium": 4310,
      "ension": 4311,
      "hi": 4312,
      "activists": 4313,
      "patient": 4314,
      "purch": 4315,
      "usual": 4316,
      "exer": 4317,
      "Canada": 4318,
      "item": 4319,
      "blast": 4320,
      "youth": 4321,
      "Colorado": 4322,
      "production": 4323,
      "Central": 4324,
      "audience": 4325,
      "Good": 4326,
      "coverage": 4327,
      "evac": 4328,
      "Govern": 4329,
      "ctic": 4330,
      "content": 4331,
      "western": 4332,
      "Olympics": 4333,
      "Pan": 4334,
      "Bob": 4335,
      "accom": 4336,
      "obvious": 4337,
      "iles": 4338,
      "speaking": 4339,
      "appoint": 4340,
      "pictures": 4341,
      "delay": 4342,
      "ites": 4343,
      "impress": 4344,
      "CA": 4345,
      "Chelsea": 4346,
      "league": 4347,
      "faith": 4348,
      "Madrid": 4349,
      "ders": 4350,
      "Jeff": 4351,
      "Because": 4352,
      "figures": 4353,
      "igan": 4354,
      "directly": 4355,
      "ufact": 4356,
      "gri": 4357,
      "gang": 4358,
      "Gold": 4359,
      "apolog": 4360,
      "broadcast": 4361,
      "lling": 4362,
      "Bag": 4363,
      "apparently": 4364,
      "fare": 4365,
      "mir": 4366,
      "thr": 4367,
      "clearly": 4368,
      "generation": 4369,
      "DA": 4370,
      "double": 4371,
      "Pre": 4372,
      "except": 4373,
      "defeat": 4374,
      "diagno": 4375,
      "declined": 4376,
      "Under": 4377,
      "Hot": 4378,
      "virus": 4379,
      "Sto": 4380,
      "aked": 4381,
      "asc": 4382,
      "tural": 4383,
      "greater": 4384,
      "condem": 4385,
      "atever": 4386,
      "physical": 4387,
      "wise": 4388,
      "focused": 4389,
      "album": 4390,
      "itarian": 4391,
      "maintain": 4392,
      "controversial": 4393,
      "wing": 4394,
      "activity": 4395,
      "Gra": 4396,
      "ification": 4397,
      "guns": 4398,
      "complex": 4399,
      "37": 4400,
      "Du": 4401,
      "shel": 4402,
      "deser": 4403,
      "transfer": 4404,
      "maybe": 4405,
      "responded": 4406,
      "truth": 4407,
      "domin": 4408,
      "fresh": 4409,
      "environment": 4410,
      "Earth": 4411,
      "Grand": 4412,
      "alive": 4413,
      "olic": 4414,
      "sustain": 4415,
      "da": 4416,
      "mach": 4417,
      "cohol": 4418,
      "hasn": 4419,
      "Sur": 4420,
      "shared": 4421,
      "Mat": 4422,
      "option": 4423,
      "acting": 4424,
      "hafi": 4425,
      "value": 4426,
      "setting": 4427,
      "etro": 4428,
      "facility": 4429,
      "deput": 4430,
      "strategy": 4431,
      "announcement": 4432,
      "putting": 4433,
      "Steph": 4434,
      "organizations": 4435,
      "rog": 4436,
      "Gadhafi": 4437,
      "individuals": 4438,
      "kidnapp": 4439,
      "ibly": 4440,
      "iar": 4441,
      "singer": 4442,
      "Os": 4443,
      "rout": 4444,
      "threats": 4445,
      "flights": 4446,
      "multiple": 4447,
      "prosecutor": 4448,
      "mile": 4449,
      "Opin": 4450,
      "geted": 4451,
      "48": 4452,
      ".)": 4453,
      "credit": 4454,
      "devast": 4455,
      "Abd": 4456,
      "suspects": 4457,
      "Home": 4458,
      "keeping": 4459,
      "athlet": 4460,
      "absolute": 4461,
      "atures": 4462,
      "FI": 4463,
      "ishment": 4464,
      "evol": 4465,
      "utch": 4466,
      "compared": 4467,
      "operating": 4468,
      "Den": 4469,
      "proud": 4470,
      "Feder": 4471,
      "Cath": 4472,
      "survey": 4473,
      "circum": 4474,
      "icated": 4475,
      "Post": 4476,
      "Adam": 4477,
      "Ok": 4478,
      "oppon": 4479,
      "doubt": 4480,
      "ledge": 4481,
      "agents": 4482,
      "meaning": 4483,
      "Ver": 4484,
      "presence": 4485,
      "dram": 4486,
      "Invest": 4487,
      "Opinion": 4488,
      "aste": 4489,
      "territ": 4490,
      "worse": 4491,
      "activities": 4492,
      "Bor": 4493,
      "bour": 4494,
      "linked": 4495,
      "selling": 4496,
      "Cub": 4497,
      "revolution": 4498,
      "Navy": 4499,
      "corruption": 4500,
      "relative": 4501,
      "Steve": 4502,
      "captain": 4503,
      "Before": 4504,
      "mates": 4505,
      "profit": 4506,
      "ifth": 4507,
      "tradition": 4508,
      "kins": 4509,
      "messages": 4510,
      "manufact": 4511,
      "Ohio": 4512,
      "Bre": 4513,
      "animals": 4514,
      "device": 4515,
      "farm": 4516,
      "suggested": 4517,
      "writing": 4518,
      "eat": 4519,
      "businesses": 4520,
      "material": 4521,
      "decide": 4522,
      "Mac": 4523,
      "bound": 4524,
      "vin": 4525,
      "convict": 4526,
      "spl": 4527,
      "Like": 4528,
      "sco": 4529,
      "venue": 4530,
      "itude": 4531,
      "blue": 4532,
      "afford": 4533,
      "runs": 4534,
      "targeted": 4535,
      "itation": 4536,
      "Mike": 4537,
      "Instead": 4538,
      "nature": 4539,
      "irt": 4540,
      "cise": 4541,
      "promise": 4542,
      "Fam": 4543,
      "heav": 4544,
      "Sus": 4545,
      "extremely": 4546,
      "ini": 4547,
      "ints": 4548,
      "quot": 4549,
      "visitors": 4550,
      "acted": 4551,
      "breaking": 4552,
      "nes": 4553,
      "Star": 4554,
      "volunte": 4555,
      "infect": 4556,
      "AN": 4557,
      "Turk": 4558,
      "consist": 4559,
      "scandal": 4560,
      "buildings": 4561,
      "ingly": 4562,
      "explained": 4563,
      "pounds": 4564,
      "ets": 4565,
      "scr": 4566,
      "deploy": 4567,
      "influence": 4568,
      "stuff": 4569,
      "citizen": 4570,
      "Cu": 4571,
      "lawyers": 4572,
      "helicop": 4573,
      "Force": 4574,
      "tt": 4575,
      "climate": 4576,
      "appointed": 4577,
      "vehicles": 4578,
      "updated": 4579,
      "mic": 4580,
      "spark": 4581,
      "beautiful": 4582,
      "Gl": 4583,
      "union": 4584,
      "finish": 4585,
      "Child": 4586,
      "thy": 4587,
      "stick": 4588,
      "raising": 4589,
      "grant": 4590,
      "cool": 4591,
      "Sar": 4592,
      "rating": 4593,
      "proced": 4594,
      "Nigeria": 4595,
      "Jordan": 4596,
      "mostly": 4597,
      "reportedly": 4598,
      "tool": 4599,
      "ower": 4600,
      "icted": 4601,
      "agencies": 4602,
      "thes": 4603,
      "employment": 4604,
      "removed": 4605,
      "els": 4606,
      "termine": 4607,
      "Van": 4608,
      "Phone": 4609,
      "iction": 4610,
      "ano": 4611,
      "inspect": 4612,
      "vac": 4613,
      "andon": 4614,
      "Eli": 4615,
      "determine": 4616,
      "occas": 4617,
      "failure": 4618,
      "bottom": 4619,
      "location": 4620,
      "personnel": 4621,
      "finished": 4622,
      "democracy": 4623,
      "Ill": 4624,
      "threatened": 4625,
      "ulted": 4626,
      "appropriate": 4627,
      "funding": 4628,
      "Bri": 4629,
      "Sol": 4630,
      "FL": 4631,
      "prices": 4632,
      "ram": 4633,
      "racial": 4634,
      "38": 4635,
      "slam": 4636,
      "frequ": 4637,
      "monitor": 4638,
      "founder": 4639,
      "walking": 4640,
      "antic": 4641,
      "Abu": 4642,
      "captured": 4643,
      "separate": 4644,
      "Yet": 4645,
      "unable": 4646,
      "settle": 4647,
      "ronic": 4648,
      "Kur": 4649,
      "incredi": 4650,
      "Zimmer": 4651,
      "highly": 4652,
      "rick": 4653,
      "filled": 4654,
      "immediate": 4655,
      "Rober": 4656,
      "healthy": 4657,
      "Egyptian": 4658,
      "kilome": 4659,
      "Kel": 4660,
      "headed": 4661,
      "Ko": 4662,
      "eastern": 4663,
      "seed": 4664,
      "urged": 4665,
      "restaurant": 4666,
      "2002": 4667,
      "shots": 4668,
      "happens": 4669,
      "flying": 4670,
      "income": 4671,
      "DC": 4672,
      "combat": 4673,
      "Earlier": 4674,
      "effective": 4675,
      "Sil": 4676,
      "largely": 4677,
      "sight": 4678,
      "stances": 4679,
      "journey": 4680,
      "cold": 4681,
      "journalist": 4682,
      "ongoing": 4683,
      "editor": 4684,
      "quir": 4685,
      "Barcel": 4686,
      "criticism": 4687,
      "sick": 4688,
      "Fire": 4689,
      "approved": 4690,
      "Cha": 4691,
      "construction": 4692,
      "Sudan": 4693,
      "Haw": 4694,
      "Still": 4695,
      "scale": 4696,
      "younger": 4697,
      "Barcelona": 4698,
      "obs": 4699,
      "conversation": 4700,
      "Rol": 4701,
      "equipment": 4702,
      "ius": 4703,
      "Big": 4704,
      "gus": 4705,
      "Prosecut": 4706,
      "ansas": 4707,
      "bringing": 4708,
      "Tay": 4709,
      "airline": 4710,
      "harm": 4711,
      "investigating": 4712,
      "Muslims": 4713,
      "Clar": 4714,
      "devices": 4715,
      "suspic": 4716,
      "ardi": 4717,
      "village": 4718,
      "hum": 4719,
      "75": 4720,
      "electric": 4721,
      "developed": 4722,
      "Ash": 4723,
      "Far": 4724,
      "Dar": 4725,
      "terrorists": 4726,
      "Research": 4727,
      "34": 4728,
      "fled": 4729,
      "assador": 4730,
      "dramatic": 4731,
      "rage": 4732,
      "alcohol": 4733,
      "icon": 4734,
      "grew": 4735,
      "conducted": 4736,
      "Im": 4737,
      "visited": 4738,
      "coalition": 4739,
      "BS": 4740,
      "providing": 4741,
      "nis": 4742,
      "mig": 4743,
      "standards": 4744,
      "pet": 4745,
      "trig": 4746,
      "yl": 4747,
      "towards": 4748,
      "eper": 4749,
      "owned": 4750,
      "Mich": 4751,
      "rum": 4752,
      "sad": 4753,
      "changing": 4754,
      "Somal": 4755,
      "cab": 4756,
      "ifying": 4757,
      "holiday": 4758,
      "skin": 4759,
      "tegr": 4760,
      "confident": 4761,
      "advantage": 4762,
      "Are": 4763,
      "knowledge": 4764,
      "confirm": 4765,
      "decisions": 4766,
      "produced": 4767,
      "hoping": 4768,
      "tin": 4769,
      "aine": 4770,
      "aker": 4771,
      "teacher": 4772,
      "secure": 4773,
      "Davis": 4774,
      "Ba": 4775,
      "catch": 4776,
      "Week": 4777,
      "rooms": 4778,
      "55": 4779,
      "owed": 4780,
      "witnesses": 4781,
      "display": 4782,
      "golf": 4783,
      "ads": 4784,
      "Mel": 4785,
      "illance": 4786,
      "dish": 4787,
      "Abdul": 4788,
      "apartment": 4789,
      "rated": 4790,
      "entered": 4791,
      "argued": 4792,
      "maker": 4793,
      "44": 4794,
      "uana": 4795,
      "pla": 4796,
      "Fort": 4797,
      "illness": 4798,
      "Cameron": 4799,
      "Church": 4800,
      "false": 4801,
      "lights": 4802,
      "Ter": 4803,
      "Airport": 4804,
      "Brook": 4805,
      "fant": 4806,
      "Hamas": 4807,
      "rican": 4808,
      "sud": 4809,
      "orders": 4810,
      "discover": 4811,
      "glass": 4812,
      "civilian": 4813,
      "Government": 4814,
      "fing": 4815,
      "atest": 4816,
      "CIA": 4817,
      "instru": 4818,
      "fest": 4819,
      "Ty": 4820,
      "Jour": 4821,
      "sought": 4822,
      "zi": 4823,
      "Di": 4824,
      "ijuana": 4825,
      "Federal": 4826,
      "definite": 4827,
      "vacc": 4828,
      "ented": 4829,
      "Year": 4830,
      "bert": 4831,
      "traged": 4832,
      "supposed": 4833,
      "inspired": 4834,
      ".-": 4835,
      "illa": 4836,
      "lege": 4837,
      "distribut": 4838,
      "apers": 4839,
      "opinion": 4840,
      "essential": 4841,
      "origin": 4842,
      "Zimmerman": 4843,
      "testing": 4844,
      "Institute": 4845,
      "wedding": 4846,
      "kills": 4847,
      "attempted": 4848,
      "izes": 4849,
      "Dam": 4850,
      "Andrew": 4851,
      "pursu": 4852,
      "Royal": 4853,
      "agan": 4854,
      "motor": 4855,
      "Administ": 4856,
      "hab": 4857,
      "deadly": 4858,
      "Tor": 4859,
      "anch": 4860,
      "Once": 4861,
      "iter": 4862,
      "belong": 4863,
      "votes": 4864,
      "possibility": 4865,
      "agues": 4866,
      "minim": 4867,
      "helps": 4868,
      "involving": 4869,
      "Investig": 4870,
      "Brad": 4871,
      "Ire": 4872,
      "pleaded": 4873,
      "attle": 4874,
      "walked": 4875,
      "reduce": 4876,
      "protection": 4877,
      "limit": 4878,
      "Lin": 4879,
      "Daniel": 4880,
      "Fox": 4881,
      "unique": 4882,
      "spirit": 4883,
      "Lev": 4884,
      "altern": 4885,
      "scored": 4886,
      "holds": 4887,
      "rop": 4888,
      "gradu": 4889,
      "color": 4890,
      "wins": 4891,
      "Found": 4892,
      "sitting": 4893,
      "videos": 4894,
      "rection": 4895,
      "Laden": 4896,
      "ceremony": 4897,
      "Rog": 4898,
      "enez": 4899,
      "Sea": 4900,
      "features": 4901,
      "Also": 4902,
      "fifth": 4903,
      "ander": 4904,
      "ji": 4905,
      "prepar": 4906,
      "historic": 4907,
      "Bagh": 4908,
      "deed": 4909,
      "syl": 4910,
      "vessel": 4911,
      "trouble": 4912,
      "background": 4913,
      "recovery": 4914,
      "plat": 4915,
      "alys": 4916,
      "150": 4917,
      "interests": 4918,
      "isan": 4919,
      "Hillary": 4920,
      "mine": 4921,
      "reck": 4922,
      "square": 4923,
      "trail": 4924,
      "politicians": 4925,
      "council": 4926,
      "pictured": 4927,
      "solution": 4928,
      "aggress": 4929,
      "NASA": 4930,
      "Turkish": 4931,
      "ume": 4932,
      "extrem": 4933,
      "allowing": 4934,
      "oo": 4935,
      "oms": 4936,
      "fish": 4937,
      "ously": 4938,
      "allows": 4939,
      "talked": 4940,
      "frust": 4941,
      "wis": 4942,
      "Hor": 4943,
      "vies": 4944,
      "integr": 4945,
      "IC": 4946,
      "euro": 4947,
      "infl": 4948,
      "Liber": 4949,
      "Bow": 4950,
      "torn": 4951,
      "39": 4952,
      "giant": 4953,
      "proceed": 4954,
      "initially": 4955,
      "umped": 4956,
      "Hen": 4957,
      "vania": 4958,
      "49": 4959,
      "assess": 4960,
      "soft": 4961,
      "seriously": 4962,
      "ordinary": 4963,
      "dozens": 4964,
      "increasingly": 4965,
      "actress": 4966,
      "tren": 4967,
      "riot": 4968,
      "Queen": 4969,
      "contest": 4970,
      "happening": 4971,
      "Prem": 4972,
      "management": 4973,
      "seconds": 4974,
      "intended": 4975,
      "authority": 4976,
      "Pennsyl": 4977,
      "Cuba": 4978,
      "suspended": 4979,
      "plot": 4980,
      "creating": 4981,
      "items": 4982,
      "wake": 4983,
      "lection": 4984,
      "agent": 4985,
      "scow": 4986,
      "shortly": 4987,
      "Scot": 4988,
      "iPhone": 4989,
      "managed": 4990,
      "complic": 4991,
      "reflect": 4992,
      "weapon": 4993,
      "pover": 4994,
      "UN": 4995,
      "42": 4996,
      "Vict": 4997,
      "ala": 4998,
      "rival": 4999,
      "aran": 5000,
      "Pennsylvania": 5001,
      "Kat": 5002,
      "stab": 5003,
      "initi": 5004,
      "kn": 5005,
      "backed": 5006,
      "houses": 5007,
      "weigh": 5008,
      "Squ": 5009,
      "Sci": 5010,
      "watched": 5011,
      "cher": 5012,
      "Baghdad": 5013,
      "Student": 5014,
      "stands": 5015,
      "shar": 5016,
      "bought": 5017,
      "rupt": 5018,
      "wart": 5019,
      "banned": 5020,
      "larger": 5021,
      "matches": 5022,
      "handed": 5023,
      "Hou": 5024,
      "picked": 5025,
      "ureau": 5026,
      "encing": 5027,
      "Youn": 5028,
      "legally": 5029,
      "lawmakers": 5030,
      "restrict": 5031,
      "Pac": 5032,
      "Moscow": 5033,
      "advert": 5034,
      "nar": 5035,
      "rush": 5036,
      "yes": 5037,
      "Ze": 5038,
      "amazing": 5039,
      "ortion": 5040,
      "iversary": 5041,
      "mouth": 5042,
      "Leban": 5043,
      "paying": 5044,
      "crimin": 5045,
      "ipe": 5046,
      "rep": 5047,
      "benefit": 5048,
      "Eric": 5049,
      "NFL": 5050,
      "waters": 5051,
      "sending": 5052,
      "planes": 5053,
      "gotten": 5054,
      "Women": 5055,
      "reading": 5056,
      "privacy": 5057,
      "cha": 5058,
      "soldier": 5059,
      "Hel": 5060,
      "blow": 5061,
      "ids": 5062,
      "overall": 5063,
      "yo": 5064,
      "Organ": 5065,
      "Wilson": 5066,
      "mode": 5067,
      "publicly": 5068,
      "ti": 5069,
      "reaction": 5070,
      "deeply": 5071,
      "Hall": 5072,
      "MA": 5073,
      "rible": 5074,
      "writer": 5075,
      "deputy": 5076,
      "dio": 5077,
      "confidence": 5078,
      "Somalia": 5079,
      "Play": 5080,
      "Bul": 5081,
      "forms": 5082,
      "Iow": 5083,
      "bac": 5084,
      "hate": 5085,
      "occup": 5086,
      "traveling": 5087,
      "Enter": 5088,
      "Str": 5089,
      "scientists": 5090,
      "destroyed": 5091,
      "Cru": 5092,
      "detained": 5093,
      "Charles": 5094,
      "promised": 5095,
      "effects": 5096,
      "equal": 5097,
      "ulting": 5098,
      "Haiti": 5099,
      "Time": 5100,
      "Spr": 5101,
      "beaten": 5102,
      "Harry": 5103,
      "user": 5104,
      "testim": 5105,
      "surviv": 5106,
      "inois": 5107,
      "critics": 5108,
      "gins": 5109,
      "options": 5110,
      "800": 5111,
      "liter": 5112,
      "Perry": 5113,
      "attended": 5114,
      "replace": 5115,
      "Kerry": 5116,
      "Illinois": 5117,
      "rou": 5118,
      "iden": 5119,
      "accounts": 5120,
      "Any": 5121,
      "Ra": 5122,
      "adults": 5123,
      "governments": 5124,
      "Reg": 5125,
      "Die": 5126,
      "Nad": 5127,
      "Pent": 5128,
      "iring": 5129,
      "ashed": 5130,
      "anniversary": 5131,
      "sher": 5132,
      "prove": 5133,
      "proposed": 5134,
      "surveillance": 5135,
      "Ir": 5136,
      "Rad": 5137,
      "surprise": 5138,
      "Kent": 5139,
      "immigrants": 5140,
      "bow": 5141,
      "awa": 5142,
      "iest": 5143,
      "Snow": 5144,
      "beating": 5145,
      "exchange": 5146,
      "worldwide": 5147,
      "movies": 5148,
      "sudden": 5149,
      "constitutional": 5150,
      "motiv": 5151,
      "Pet": 5152,
      "Press": 5153,
      "bell": 5154,
      "Journal": 5155,
      "fraud": 5156,
      "emotional": 5157,
      "itals": 5158,
      "quarters": 5159,
      "outs": 5160,
      "OK": 5161,
      "Lar": 5162,
      "fis": 5163,
      "earned": 5164,
      "OR": 5165,
      "2000": 5166,
      "struggle": 5167,
      "repeatedly": 5168,
      "thus": 5169,
      "regist": 5170,
      "fection": 5171,
      "absolutely": 5172,
      "outbreak": 5173,
      "statements": 5174,
      "write": 5175,
      "whatever": 5176,
      "moon": 5177,
      "applic": 5178,
      "Dun": 5179,
      "Iowa": 5180,
      "implement": 5181,
      "appre": 5182,
      "cape": 5183,
      "greatest": 5184,
      "bombing": 5185,
      "drivers": 5186,
      "46": 5187,
      "relief": 5188,
      "angry": 5189,
      "PM": 5190,
      "correct": 5191,
      "worry": 5192,
      "cook": 5193,
      "produce": 5194,
      "incidents": 5195,
      "Bang": 5196,
      "ulate": 5197,
      "prosecution": 5198,
      "ouri": 5199,
      "heat": 5200,
      "stock": 5201,
      "moments": 5202,
      "Among": 5203,
      "Mah": 5204,
      "museum": 5205,
      "testified": 5206,
      "animal": 5207,
      "resolution": 5208,
      "kno": 5209,
      "beth": 5210,
      "comfortable": 5211,
      "ricane": 5212,
      "Airlines": 5213,
      "tragedy": 5214,
      "dogs": 5215,
      "Yes": 5216,
      "passenger": 5217,
      "definitely": 5218,
      "Mail": 5219,
      "funds": 5220,
      "gall": 5221,
      "Lead": 5222,
      "bigger": 5223,
      "Premier": 5224,
      "roads": 5225,
      "marijuana": 5226,
      "panel": 5227,
      "complaint": 5228,
      "airo": 5229,
      "FIFA": 5230,
      "article": 5231,
      "dozen": 5232,
      "jur": 5233,
      "Malays": 5234,
      "tort": 5235,
      "worker": 5236,
      "Tube": 5237,
      "pushed": 5238,
      "investment": 5239,
      "Bol": 5240,
      "task": 5241,
      "resist": 5242,
      "cry": 5243,
      "yourself": 5244,
      "unit": 5245,
      "voting": 5246,
      "damaged": 5247,
      "ovic": 5248,
      "heads": 5249,
      "ivity": 5250,
      "horse": 5251,
      "Taylor": 5252,
      "Walk": 5253,
      "Harris": 5254,
      "assistance": 5255,
      "feels": 5256,
      "aska": 5257,
      "humanitarian": 5258,
      "EU": 5259,
      "markets": 5260,
      "Cle": 5261,
      "diplomatic": 5262,
      "artist": 5263,
      "alysis": 5264,
      "Swed": 5265,
      "Ros": 5266,
      "enses": 5267,
      "ologist": 5268,
      "girlfriend": 5269,
      "ministry": 5270,
      "icking": 5271,
      "temporary": 5272,
      "parent": 5273,
      "blame": 5274,
      "remarks": 5275,
      "dia": 5276,
      "Michigan": 5277,
      "emerged": 5278,
      "($": 5279,
      "**": 5280,
      "consequ": 5281,
      "joint": 5282,
      "stance": 5283,
      "Cra": 5284,
      "Ray": 5285,
      "Though": 5286,
      "Alab": 5287,
      "testimony": 5288,
      "carri": 5289,
      "criticized": 5290,
      "stret": 5291,
      "located": 5292,
      "inson": 5293,
      "supporting": 5294,
      "scri": 5295,
      "Officials": 5296,
      "ares": 5297,
      "winter": 5298,
      "Guard": 5299,
      "symb": 5300,
      "offering": 5301,
      "Tun": 5302,
      "eating": 5303,
      "brut": 5304,
      "established": 5305,
      "urban": 5306,
      "kel": 5307,
      "ER": 5308,
      "grab": 5309,
      "ideas": 5310,
      "expensive": 5311,
      "meth": 5312,
      "stun": 5313,
      "rebel": 5314,
      "guys": 5315,
      "Dire": 5316,
      "congressional": 5317,
      "Francisco": 5318,
      "ero": 5319,
      "surrounding": 5320,
      "Administration": 5321,
      "Greece": 5322,
      "vul": 5323,
      "films": 5324,
      "debut": 5325,
      "idel": 5326,
      "worried": 5327,
      "Venez": 5328,
      "everybody": 5329,
      "Long": 5330,
      "thanks": 5331,
      "Mu": 5332,
      "Miam": 5333,
      "escape": 5334,
      "controversy": 5335,
      "boss": 5336,
      "dan": 5337,
      "sale": 5338,
      "nice": 5339,
      "widely": 5340,
      "agers": 5341,
      "choose": 5342,
      "Pentagon": 5343,
      "Cal": 5344,
      "regional": 5345,
      "none": 5346,
      "developing": 5347,
      "function": 5348,
      "Alabama": 5349,
      "cluded": 5350,
      "Miami": 5351,
      "65": 5352,
      "epis": 5353,
      "ride": 5354,
      "hall": 5355,
      "chain": 5356,
      "proposal": 5357,
      "Win": 5358,
      "Get": 5359,
      "kilometers": 5360,
      "bol": 5361,
      "aks": 5362,
      "Michel": 5363,
      "achieve": 5364,
      "boost": 5365,
      "virt": 5366,
      "tight": 5367,
      "recru": 5368,
      "Reporter": 5369,
      "belief": 5370,
      "Ukrain": 5371,
      "drew": 5372,
      "sees": 5373,
      "uster": 5374,
      "YouTube": 5375,
      "hosp": 5376,
      "conspir": 5377,
      "presents": 5378,
      "relatives": 5379,
      "pit": 5380,
      "zed": 5381,
      "lip": 5382,
      "familiar": 5383,
      "constant": 5384,
      "Christie": 5385,
      "ole": 5386,
      "isol": 5387,
      "ethnic": 5388,
      "Out": 5389,
      "strength": 5390,
      "lon": 5391,
      "Great": 5392,
      "facilities": 5393,
      "Medical": 5394,
      "claiming": 5395,
      "passion": 5396,
      "grown": 5397,
      "Ireland": 5398,
      "peaceful": 5399,
      "sons": 5400,
      "Mont": 5401,
      "recorded": 5402,
      "Men": 5403,
      "toll": 5404,
      "explain": 5405,
      "Fergus": 5406,
      "ateg": 5407,
      "map": 5408,
      "standard": 5409,
      "abandon": 5410,
      "batter": 5411,
      "Glo": 5412,
      "mph": 5413,
      "det": 5414,
      "iP": 5415,
      "causing": 5416,
      "fears": 5417,
      "weren": 5418,
      "ippi": 5419,
      "Latin": 5420,
      "Louisiana": 5421,
      "winds": 5422,
      "circumstances": 5423,
      "duty": 5424,
      "connect": 5425,
      "iat": 5426,
      "43": 5427,
      "veterans": 5428,
      "assu": 5429,
      "Wat": 5430,
      "section": 5431,
      "syn": 5432,
      "andez": 5433,
      "killings": 5434,
      "earthquake": 5435,
      "banks": 5436,
      "ernandez": 5437,
      "Mali": 5438,
      "vit": 5439,
      "rev": 5440,
      "quiet": 5441,
      "river": 5442,
      "legit": 5443,
      "Young": 5444,
      "colleagues": 5445,
      "advice": 5446,
      "oppos": 5447,
      "merous": 5448,
      "consu": 5449,
      "Libyan": 5450,
      "whel": 5451,
      "Blo": 5452,
      "fought": 5453,
      "ugg": 5454,
      "Roberts": 5455,
      "Life": 5456,
      "Sever": 5457,
      "questioned": 5458,
      "iReport": 5459,
      "Where": 5460,
      "traff": 5461,
      "pal": 5462,
      "commander": 5463,
      "projects": 5464,
      "Ferguson": 5465,
      "identify": 5466,
      "iner": 5467,
      "NT": 5468,
      "kin": 5469,
      "Colomb": 5470,
      "rescu": 5471,
      "client": 5472,
      "evin": 5473,
      "IR": 5474,
      "doors": 5475,
      "closer": 5476,
      "predict": 5477,
      "identity": 5478,
      "hat": 5479,
      "Victor": 5480,
      "stores": 5481,
      "provides": 5482,
      "ogue": 5483,
      "DNA": 5484,
      "basic": 5485,
      "Donald": 5486,
      "Beach": 5487,
      "allies": 5488,
      "Mississ": 5489,
      "600": 5490,
      "intent": 5491,
      "divor": 5492,
      "Mohammed": 5493,
      "gue": 5494,
      "gment": 5495,
      "inches": 5496,
      "fatal": 5497,
      "supported": 5498,
      "struggling": 5499,
      "gender": 5500,
      "seats": 5501,
      "spill": 5502,
      "experienced": 5503,
      "jet": 5504,
      "apart": 5505,
      "blamed": 5506,
      "tery": 5507,
      "pread": 5508,
      "potentially": 5509,
      "preced": 5510,
      "Only": 5511,
      "targets": 5512,
      "feature": 5513,
      "ogra": 5514,
      "courts": 5515,
      "easily": 5516,
      "plays": 5517,
      "gathered": 5518,
      "digital": 5519,
      "toms": 5520,
      "Bas": 5521,
      "cript": 5522,
      "LA": 5523,
      "ode": 5524,
      "stein": 5525,
      "Champions": 5526,
      "collection": 5527,
      "Mississippi": 5528,
      "window": 5529,
      "tied": 5530,
      "isa": 5531,
      "brothers": 5532,
      "controlled": 5533,
      "dones": 5534,
      "Foundation": 5535,
      "contr": 5536,
      "rejected": 5537,
      "cited": 5538,
      "Catholic": 5539,
      "rol": 5540,
      "ova": 5541,
      "possibly": 5542,
      "cycl": 5543,
      "vation": 5544,
      "auto": 5545,
      "Social": 5546,
      "retired": 5547,
      "nut": 5548,
      "legitim": 5549,
      "striker": 5550,
      "opportun": 5551,
      "Pacific": 5552,
      "Asian": 5553,
      "Argentina": 5554,
      "unclear": 5555,
      "Sheriff": 5556,
      "communications": 5557,
      "rally": 5558,
      "tribut": 5559,
      "Canad": 5560,
      "veteran": 5561,
      "adds": 5562,
      "Eliza": 5563,
      "spring": 5564,
      "52": 5565,
      "spoken": 5566,
      "negative": 5567,
      "Show": 5568,
      "cultural": 5569,
      "pa": 5570,
      "vals": 5571,
      "charity": 5572,
      "prompted": 5573,
      "Indones": 5574,
      "leng": 5575,
      "surface": 5576,
      "assistant": 5577,
      "marked": 5578,
      "?'": 5579,
      "unlikely": 5580,
      "Houston": 5581,
      "lux": 5582,
      "lyn": 5583,
      "approv": 5584,
      "poverty": 5585,
      "evacu": 5586,
      "Nick": 5587,
      "commitment": 5588,
      "Kelly": 5589,
      "reput": 5590,
      "Tenn": 5591,
      "Rock": 5592,
      "traveled": 5593,
      "coord": 5594,
      "Miller": 5595,
      "athletes": 5596,
      "overwhel": 5597,
      "ses": 5598,
      "Arabia": 5599,
      "completed": 5600,
      "Southern": 5601,
      "Public": 5602,
      "idespread": 5603,
      "bear": 5604,
      "Bud": 5605,
      "Ky": 5606,
      "enty": 5607,
      "bath": 5608,
      "laps": 5609,
      "lder": 5610,
      "Square": 5611,
      "yell": 5612,
      "Has": 5613,
      "truly": 5614,
      "explosion": 5615,
      "oring": 5616,
      "Philipp": 5617,
      "acknowledged": 5618,
      "nomin": 5619,
      "prisoners": 5620,
      "Gal": 5621,
      "racing": 5622,
      "Dou": 5623,
      "Greg": 5624,
      "remot": 5625,
      "bles": 5626,
      "survived": 5627,
      "Mayor": 5628,
      "approval": 5629,
      "ultimately": 5630,
      "Emb": 5631,
      "connected": 5632,
      "gers": 5633,
      "reporting": 5634,
      "crashed": 5635,
      "pull": 5636,
      "250": 5637,
      "withdraw": 5638,
      "Kenya": 5639,
      "aimed": 5640,
      "Morgan": 5641,
      "Elizabeth": 5642,
      "warm": 5643,
      "lan": 5644,
      "rail": 5645,
      "returning": 5646,
      "plus": 5647,
      "lected": 5648,
      "ocal": 5649,
      "inspir": 5650,
      "anna": 5651,
      "Allen": 5652,
      "Woods": 5653,
      "Soc": 5654,
      "bling": 5655,
      "2016": 5656,
      "route": 5657,
      "Kevin": 5658,
      "advan": 5659,
      "sch": 5660,
      "tray": 5661,
      "Columb": 5662,
      "Rick": 5663,
      "Lau": 5664,
      "negotiations": 5665,
      "gal": 5666,
      "direction": 5667,
      "perman": 5668,
      "remaining": 5669,
      "taxes": 5670,
      "41": 5671,
      "corner": 5672,
      "Okla": 5673,
      "Jr": 5674,
      "tend": 5675,
      "tennis": 5676,
      "understanding": 5677,
      "vey": 5678,
      "rub": 5679,
      ",’": 5680,
      "asters": 5681,
      "environmental": 5682,
      "sett": 5683,
      "ami": 5684,
      "Oklahom": 5685,
      "adult": 5686,
      "Bash": 5687,
      "Hun": 5688,
      "ching": 5689,
      "Qat": 5690,
      "tact": 5691,
      "tip": 5692,
      "iro": 5693,
      "territory": 5694,
      "Care": 5695,
      "atell": 5696,
      "odd": 5697,
      "teachers": 5698,
      "Ann": 5699,
      "stadium": 5700,
      "oner": 5701,
      "Liver": 5702,
      "remote": 5703,
      "impossible": 5704,
      "drawn": 5705,
      "idency": 5706,
      "Juli": 5707,
      "supplies": 5708,
      "sharing": 5709,
      "Il": 5710,
      "tweeted": 5711,
      "consumers": 5712,
      "Hay": 5713,
      "master": 5714,
      "Inc": 5715,
      "studies": 5716,
      "supply": 5717,
      "accus": 5718,
      "clusive": 5719,
      "Family": 5720,
      "acity": 5721,
      "aboard": 5722,
      "activist": 5723,
      "Sir": 5724,
      "numerous": 5725,
      "receiving": 5726,
      "Scotland": 5727,
      "Milan": 5728,
      "introduced": 5729,
      "neck": 5730,
      "threatening": 5731,
      "Bern": 5732,
      "bors": 5733,
      "widespread": 5734,
      "Sarah": 5735,
      "sand": 5736,
      "prin": 5737,
      "desper": 5738,
      "heading": 5739,
      "NBC": 5740,
      "College": 5741,
      "Oklahoma": 5742,
      "casual": 5743,
      "remove": 5744,
      "Champion": 5745,
      "royal": 5746,
      "Flight": 5747,
      "Jenn": 5748,
      "cock": 5749,
      "clothes": 5750,
      "Lind": 5751,
      "interested": 5752,
      "Democrat": 5753,
      "clubs": 5754,
      "employee": 5755,
      "Lake": 5756,
      "warrant": 5757,
      "Space": 5758,
      "Missouri": 5759,
      "onest": 5760,
      "portation": 5761,
      "rence": 5762,
      "suggests": 5763,
      "mann": 5764,
      "recommend": 5765,
      "accepted": 5766,
      "grade": 5767,
      "Mub": 5768,
      "requires": 5769,
      "ticket": 5770,
      "Children": 5771,
      "essed": 5772,
      "thinks": 5773,
      "burn": 5774,
      "Ukrainian": 5775,
      "Work": 5776,
      "wheel": 5777,
      "easier": 5778,
      "surprised": 5779,
      "accompl": 5780,
      "saving": 5781,
      "Your": 5782,
      "Call": 5783,
      "Hal": 5784,
      "wan": 5785,
      "stable": 5786,
      "Nic": 5787,
      "frastructure": 5788,
      "thank": 5789,
      "adel": 5790,
      "wash": 5791,
      "organized": 5792,
      "polls": 5793,
      "Up": 5794,
      "file": 5795,
      "founded": 5796,
      "Ru": 5797,
      "core": 5798,
      "Liverpool": 5799,
      "Fil": 5800,
      "mond": 5801,
      "Dutch": 5802,
      "smaller": 5803,
      "Jewish": 5804,
      "gap": 5805,
      "brutal": 5806,
      "IP": 5807,
      "learning": 5808,
      "Its": 5809,
      "somebody": 5810,
      "install": 5811,
      "Viet": 5812,
      "plast": 5813,
      "operate": 5814,
      "traum": 5815,
      "leads": 5816,
      "tourists": 5817,
      "innocent": 5818,
      "becomes": 5819,
      "surge": 5820,
      "ilton": 5821,
      "exhib": 5822,
      "opportunities": 5823,
      "consc": 5824,
      "vulner": 5825,
      "bly": 5826,
      "Hur": 5827,
      "NG": 5828,
      "ademy": 5829,
      "oon": 5830,
      "considering": 5831,
      "ye": 5832,
      "arak": 5833,
      "abdu": 5834,
      "pression": 5835,
      "Foot": 5836,
      "Cla": 5837,
      "dance": 5838,
      "Several": 5839,
      "citing": 5840,
      "delivered": 5841,
      "pregnant": 5842,
      "print": 5843,
      "compound": 5844,
      "races": 5845,
      "roof": 5846,
      "Obam": 5847,
      "facts": 5848,
      "insisted": 5849,
      "Jes": 5850,
      "imin": 5851,
      "skills": 5852,
      "meters": 5853,
      "mort": 5854,
      "ambassador": 5855,
      "itect": 5856,
      "medal": 5857,
      "pieces": 5858,
      "estate": 5859,
      "hole": 5860,
      "EA": 5861,
      "satis": 5862,
      "notes": 5863,
      "radical": 5864,
      "tun": 5865,
      "indict": 5866,
      "tally": 5867,
      "balance": 5868,
      "ision": 5869,
      "77": 5870,
      "Kir": 5871,
      "Mubarak": 5872,
      "prob": 5873,
      "drinking": 5874,
      "friendly": 5875,
      "HIV": 5876,
      "continuing": 5877,
      "opposed": 5878,
      "Live": 5879,
      "ental": 5880,
      "edge": 5881,
      "princ": 5882,
      "Club": 5883,
      "wave": 5884,
      "Anderson": 5885,
      "symptoms": 5886,
      "welcome": 5887,
      "illing": 5888,
      "sheriff": 5889,
      "Cross": 5890,
      "defe": 5891,
      "tack": 5892,
      "smoke": 5893,
      "Oscar": 5894,
      "istor": 5895,
      "1970": 5896,
      "Free": 5897,
      "involvement": 5898,
      "referring": 5899,
      "AM": 5900,
      "administr": 5901,
      "icit": 5902,
      "Canadian": 5903,
      "guests": 5904,
      "mistake": 5905,
      "Pen": 5906,
      "abs": 5907,
      "Lit": 5908,
      "gro": 5909,
      "basis": 5910,
      "stim": 5911,
      "tested": 5912,
      "Fol": 5913,
      "Hotel": 5914,
      "liance": 5915,
      "iland": 5916,
      "funeral": 5917,
      "panic": 5918,
      "hner": 5919,
      "estimates": 5920,
      "counsel": 5921,
      "dinner": 5922,
      "hospitals": 5923,
      "infrastructure": 5924,
      "guaran": 5925,
      "Boy": 5926,
      "arden": 5927,
      "closely": 5928,
      "seized": 5929,
      "drone": 5930,
      "trick": 5931,
      "ABC": 5932,
      "Ford": 5933,
      "risks": 5934,
      "Diego": 5935,
      "teenager": 5936,
      "umph": 5937,
      "iven": 5938,
      "engaged": 5939,
      "dealing": 5940,
      "matters": 5941,
      "Ts": 5942,
      "abilities": 5943,
      "apol": 5944,
      "Bah": 5945,
      "Biden": 5946,
      "Stan": 5947,
      "verdict": 5948,
      "champions": 5949,
      "demonstrators": 5950,
      "cance": 5951,
      "recording": 5952,
      "investigate": 5953,
      "cticut": 5954,
      "shopping": 5955,
      "Connecticut": 5956,
      "visiting": 5957,
      "Mun": 5958,
      "erup": 5959,
      "antly": 5960,
      "alongside": 5961,
      "score": 5962,
      "Jay": 5963,
      "ipal": 5964,
      "thoughts": 5965,
      "relatively": 5966,
      "leaves": 5967,
      "realize": 5968,
      "causes": 5969,
      "Cop": 5970,
      "hatt": 5971,
      "remark": 5972,
      "purpose": 5973,
      "Tech": 5974,
      "driven": 5975,
      "satell": 5976,
      "succeed": 5977,
      "birthday": 5978,
      "Fr": 5979,
      "math": 5980,
      "ils": 5981,
      "nav": 5982,
      "CDC": 5983,
      "appreci": 5984,
      "reserved": 5985,
      "err": 5986,
      "passing": 5987,
      "powers": 5988,
      "intim": 5989,
      "slight": 5990,
      "recovered": 5991,
      "jam": 5992,
      "legend": 5993,
      "novel": 5994,
      "Shi": 5995,
      "apy": 5996,
      "abortion": 5997,
      "opted": 5998,
      "conviction": 5999,
      "trained": 6000,
      "icy": 6001,
      "tered": 6002,
      "guards": 6003,
      "Valley": 6004,
      "PS": 6005,
      "scor": 6006,
      "artists": 6007,
      "AS": 6008,
      "native": 6009,
      "itz": 6010,
      "describe": 6011,
      "internal": 6012,
      "ato": 6013,
      "sters": 6014,
      "unusual": 6015,
      "Cooper": 6016,
      "inquir": 6017,
      "plants": 6018,
      "56": 6019,
      "Na": 6020,
      "sector": 6021,
      "offensive": 6022,
      "flooding": 6023,
      "Six": 6024,
      "Polit": 6025,
      "basket": 6026,
      "til": 6027,
      "conscious": 6028,
      "calm": 6029,
      "pin": 6030,
      "tap": 6031,
      "ww": 6032,
      "ills": 6033,
      "istics": 6034,
      "handle": 6035,
      "rocket": 6036,
      "vised": 6037,
      "imagine": 6038,
      "OS": 6039,
      "Maria": 6040,
      "militant": 6041,
      "ulated": 6042,
      "ju": 6043,
      "mel": 6044,
      "Boehner": 6045,
      "planet": 6046,
      "argument": 6047,
      "icial": 6048,
      "interesting": 6049,
      "Stu": 6050,
      "exercise": 6051,
      "advance": 6052,
      "retire": 6053,
      "associated": 6054,
      "turns": 6055,
      "acre": 6056,
      "attorneys": 6057,
      "owell": 6058,
      "asks": 6059,
      "rial": 6060,
      "researchers": 6061,
      "ws": 6062,
      "characters": 6063,
      "keting": 6064,
      "Carter": 6065,
      "listed": 6066,
      "icts": 6067,
      "abul": 6068,
      "heavily": 6069,
      "Gir": 6070,
      "routine": 6071,
      "Federer": 6072,
      "athe": 6073,
      "pushing": 6074,
      "valu": 6075,
      "Mir": 6076,
      "usal": 6077,
      "Dub": 6078,
      "Ocean": 6079,
      "pitch": 6080,
      "’.": 6081,
      "realized": 6082,
      "arrests": 6083,
      "bott": 6084,
      "positions": 6085,
      "method": 6086,
      "Lewis": 6087,
      "diagnosed": 6088,
      "ridge": 6089,
      "stepped": 6090,
      "igned": 6091,
      "Prosecutors": 6092,
      "Bet": 6093,
      "gian": 6094,
      "tensions": 6095,
      "RA": 6096,
      "detain": 6097,
      "myster": 6098,
      "regarding": 6099,
      "53": 6100,
      "Hamp": 6101,
      "Tok": 6102,
      "reforms": 6103,
      "machine": 6104,
      "Beck": 6105,
      "Bus": 6106,
      "Cy": 6107,
      "oked": 6108,
      "housing": 6109,
      "shouldn": 6110,
      "fortunately": 6111,
      "helicopter": 6112,
      "forget": 6113,
      "pher": 6114,
      "encourage": 6115,
      "escap": 6116,
      "Gor": 6117,
      "highlight": 6118,
      "atherine": 6119,
      "fighter": 6120,
      "zon": 6121,
      "sac": 6122,
      "enda": 6123,
      "plenty": 6124,
      "Best": 6125,
      "Las": 6126,
      "Sky": 6127,
      "Lab": 6128,
      "Mitt": 6129,
      "values": 6130,
      "recalled": 6131,
      "stag": 6132,
      "notice": 6133,
      "split": 6134,
      "ique": 6135,
      "recognize": 6136,
      "Rub": 6137,
      "ourage": 6138,
      "Stone": 6139,
      "breast": 6140,
      "categ": 6141,
      "ables": 6142,
      "voy": 6143,
      "mory": 6144,
      "sphere": 6145,
      "patch": 6146,
      "producer": 6147,
      "rapid": 6148,
      "Five": 6149,
      "killer": 6150,
      "autom": 6151,
      "democratic": 6152,
      "57": 6153,
      "ached": 6154,
      "prefer": 6155,
      "cers": 6156,
      "ahu": 6157,
      "memory": 6158,
      "actors": 6159,
      "Cost": 6160,
      "Hus": 6161,
      "Bla": 6162,
      "iano": 6163,
      "Islamist": 6164,
      "intense": 6165,
      "Atlantic": 6166,
      "writes": 6167,
      "prop": 6168,
      "dispute": 6169,
      "700": 6170,
      "portion": 6171,
      "Director": 6172,
      "moves": 6173,
      "shirt": 6174,
      "performed": 6175,
      "sque": 6176,
      "cler": 6177,
      "maxim": 6178,
      "prospect": 6179,
      "dial": 6180,
      "Laur": 6181,
      "outrage": 6182,
      "consequences": 6183,
      "1999": 6184,
      "58": 6185,
      "rein": 6186,
      "cipl": 6187,
      "Rel": 6188,
      "presented": 6189,
      "sparked": 6190,
      "Clark": 6191,
      "BBC": 6192,
      "stran": 6193,
      "tea": 6194,
      "ias": 6195,
      "landing": 6196,
      "99": 6197,
      "Andy": 6198,
      "soccer": 6199,
      "apt": 6200,
      "Civil": 6201,
      "Tony": 6202,
      "indicated": 6203,
      "Sum": 6204,
      "accur": 6205,
      "upset": 6206,
      "poses": 6207,
      "generally": 6208,
      "stayed": 6209,
      "Top": 6210,
      "afraid": 6211,
      "ita": 6212,
      "prohib": 6213,
      "bombs": 6214,
      "Love": 6215,
      "songs": 6216,
      "cameras": 6217,
      "falling": 6218,
      "representative": 6219,
      "Maryland": 6220,
      "bars": 6221,
      "acare": 6222,
      "reaching": 6223,
      "reputation": 6224,
      "symbol": 6225,
      "USA": 6226,
      "unemployment": 6227,
      "loyal": 6228,
      "alternative": 6229,
      "Cairo": 6230,
      "instit": 6231,
      "Stephen": 6232,
      "Entertainment": 6233,
      "tree": 6234,
      "Obamacare": 6235,
      "session": 6236,
      "tank": 6237,
      "Safe": 6238,
      "clashes": 6239,
      "iqu": 6240,
      "remind": 6241,
      "chances": 6242,
      "corporate": 6243,
      "disappeared": 6244,
      "missile": 6245,
      "crimination": 6246,
      "clusion": 6247,
      "Northern": 6248,
      "shocked": 6249,
      "CO": 6250,
      "concluded": 6251,
      "proved": 6252,
      "suffer": 6253,
      "Tokyo": 6254,
      "rivals": 6255,
      "umn": 6256,
      "drove": 6257,
      "cycle": 6258,
      "neighbors": 6259,
      "Each": 6260,
      "nesty": 6261,
      "forecast": 6262,
      "letters": 6263,
      "capacity": 6264,
      "Brother": 6265,
      "Thailand": 6266,
      "tag": 6267,
      "mut": 6268,
      "cease": 6269,
      "titles": 6270,
      "Vegas": 6271,
      "jun": 6272,
      "bare": 6273,
      "unless": 6274,
      "Ev": 6275,
      "Museum": 6276,
      "inct": 6277,
      "Arm": 6278,
      "religion": 6279,
      "gate": 6280,
      "Chan": 6281,
      "email": 6282,
      "Ap": 6283,
      "refugees": 6284,
      "itors": 6285,
      "failing": 6286,
      "Az": 6287,
      "adm": 6288,
      "agu": 6289,
      "comedy": 6290,
      "Medic": 6291,
      "minority": 6292,
      "Down": 6293,
      "trol": 6294,
      "ocean": 6295,
      "ja": 6296,
      "attempts": 6297,
      "obviously": 6298,
      "evolution": 6299,
      "campus": 6300,
      "Joseph": 6301,
      "nomine": 6302,
      "endment": 6303,
      "servers": 6304,
      "fre": 6305,
      "lady": 6306,
      "Embassy": 6307,
      "51": 6308,
      "acked": 6309,
      "phia": 6310,
      "moral": 6311,
      "buried": 6312,
      "Crime": 6313,
      "Ple": 6314,
      "orial": 6315,
      "Anton": 6316,
      "concept": 6317,
      "forest": 6318,
      "Investigators": 6319,
      "Simp": 6320,
      "shift": 6321,
      "54": 6322,
      "hid": 6323,
      "termin": 6324,
      "architect": 6325,
      "fires": 6326,
      "assass": 6327,
      "demands": 6328,
      "itary": 6329,
      "capture": 6330,
      "promin": 6331,
      "Zeal": 6332,
      "cutting": 6333,
      "adelphia": 6334,
      "tie": 6335,
      "anony": 6336,
      "onso": 6337,
      "reh": 6338,
      "lapse": 6339,
      "Ut": 6340,
      "pting": 6341,
      "Asked": 6342,
      "distance": 6343,
      "Brian": 6344,
      "originally": 6345,
      "CC": 6346,
      "si": 6347,
      "leans": 6348,
      "networks": 6349,
      "travelers": 6350,
      "Philadelphia": 6351,
      "acceptable": 6352,
      "olen": 6353,
      "oko": 6354,
      "Mors": 6355,
      "usion": 6356,
      "viewers": 6357,
      "Little": 6358,
      "Marine": 6359,
      "Plan": 6360,
      "abroad": 6361,
      "Phill": 6362,
      "Nev": 6363,
      "Nadal": 6364,
      "ees": 6365,
      "enders": 6366,
      "Services": 6367,
      "credi": 6368,
      "TA": 6369,
      "cession": 6370,
      "aces": 6371,
      "locked": 6372,
      "consult": 6373,
      "pipe": 6374,
      "analysis": 6375,
      "footage": 6376,
      "solid": 6377,
      "temperatures": 6378,
      "Ahmad": 6379,
      "granted": 6380,
      "ware": 6381,
      "retail": 6382,
      "demonstrations": 6383,
      "tornado": 6384,
      "Raf": 6385,
      "Santa": 6386,
      "tons": 6387,
      "andela": 6388,
      "Moore": 6389,
      "renew": 6390,
      "Tennes": 6391,
      "Way": 6392,
      "stal": 6393,
      "compete": 6394,
      "targeting": 6395,
      "keeper": 6396,
      "couples": 6397,
      "Manhatt": 6398,
      "priority": 6399,
      "scenes": 6400,
      "Lebanon": 6401,
      "ule": 6402,
      "begins": 6403,
      "presidency": 6404,
      "Roman": 6405,
      "discipl": 6406,
      "crucial": 6407,
      "Manhattan": 6408,
      "overseas": 6409,
      "plastic": 6410,
      "Art": 6411,
      "daughters": 6412,
      "Bir": 6413,
      "Nu": 6414,
      "detention": 6415,
      "rural": 6416,
      "earn": 6417,
      "meat": 6418,
      "Ban": 6419,
      "represents": 6420,
      "answers": 6421,
      "trees": 6422,
      "grounds": 6423,
      "Ferr": 6424,
      "Graham": 6425,
      "formal": 6426,
      "Back": 6427,
      "Mandela": 6428,
      "reporter": 6429,
      "Rose": 6430,
      "senator": 6431,
      "nur": 6432,
      "1990s": 6433,
      "raw": 6434,
      "bright": 6435,
      "oral": 6436,
      "roughly": 6437,
      "bags": 6438,
      "Palin": 6439,
      "sharp": 6440,
      "deleg": 6441,
      "counted": 6442,
      "opponents": 6443,
      "Dubai": 6444,
      "IM": 6445,
      "shore": 6446,
      "magn": 6447,
      "oth": 6448,
      "Cab": 6449,
      "Jon": 6450,
      "univers": 6451,
      "Commun": 6452,
      "transition": 6453,
      "Pope": 6454,
      "Matthe": 6455,
      "tent": 6456,
      "summit": 6457,
      "ionally": 6458,
      "escal": 6459,
      "sche": 6460,
      "Bad": 6461,
      "tragic": 6462,
      "cards": 6463,
      "checks": 6464,
      "Tennessee": 6465,
      "stated": 6466,
      "Food": 6467,
      "dust": 6468,
      "ranch": 6469,
      "knowing": 6470,
      "mour": 6471,
      "anx": 6472,
      "semif": 6473,
      "legacy": 6474,
      "confront": 6475,
      "Teh": 6476,
      "Kentucky": 6477,
      "Zealand": 6478,
      "ales": 6479,
      "burned": 6480,
      "emphas": 6481,
      "Castro": 6482,
      "Rice": 6483,
      "lots": 6484,
      "jailed": 6485,
      "materials": 6486,
      "drama": 6487,
      "offee": 6488,
      "inet": 6489,
      "rank": 6490,
      "org": 6491,
      "ifer": 6492,
      "shape": 6493,
      "fron": 6494,
      "explains": 6495,
      "jihad": 6496,
      "Comp": 6497,
      "incredible": 6498,
      "luxury": 6499,
      "judges": 6500,
      "aug": 6501,
      "excited": 6502,
      "lob": 6503,
      "closing": 6504,
      "norm": 6505,
      "listen": 6506,
      "memorial": 6507,
      "analysts": 6508,
      "preser": 6509,
      "Team": 6510,
      "BP": 6511,
      "tware": 6512,
      "Aff": 6513,
      "PR": 6514,
      "unknown": 6515,
      "lucky": 6516,
      "agenda": 6517,
      "behalf": 6518,
      "havez": 6519,
      "code": 6520,
      "factor": 6521,
      "plea": 6522,
      "conspiracy": 6523,
      "Bon": 6524,
      "Chavez": 6525,
      "yard": 6526,
      "bris": 6527,
      "Organization": 6528,
      "survivors": 6529,
      "compreh": 6530,
      "documented": 6531,
      "landed": 6532,
      "Hawai": 6533,
      "Michelle": 6534,
      "sixth": 6535,
      "Ama": 6536,
      "basketball": 6537,
      "Orleans": 6538,
      "affairs": 6539,
      "canceled": 6540,
      "laid": 6541,
      "aud": 6542,
      "celebrate": 6543,
      "Ross": 6544,
      "painting": 6545,
      "Jean": 6546,
      "elsewhere": 6547,
      "celebrity": 6548,
      "closure": 6549,
      "fewer": 6550,
      "independence": 6551,
      "59": 6552,
      "Nel": 6553,
      "describes": 6554,
      "arez": 6555,
      "resort": 6556,
      "coll": 6557,
      "cuit": 6558,
      "existing": 6559,
      "platform": 6560,
      "Jam": 6561,
      "Hernandez": 6562,
      "illy": 6563,
      "fundament": 6564,
      "hotels": 6565,
      "60s": 6566,
      "visions": 6567,
      "package": 6568,
      "deliber": 6569,
      "recognized": 6570,
      "Lt": 6571,
      "Sovie": 6572,
      "Susan": 6573,
      "dismissed": 6574,
      "Old": 6575,
      "pour": 6576,
      "internet": 6577,
      "Arsen": 6578,
      "waste": 6579,
      "Second": 6580,
      "towns": 6581,
      "hoped": 6582,
      "saved": 6583,
      "discrimination": 6584,
      "discussion": 6585,
      "fallen": 6586,
      "survive": 6587,
      "stro": 6588,
      "Blue": 6589,
      "Qatar": 6590,
      "Py": 6591,
      "experiences": 6592,
      "eval": 6593,
      "directed": 6594,
      "Football": 6595,
      "Patrick": 6596,
      "Mas": 6597,
      "cia": 6598,
      "promote": 6599,
      "locations": 6600,
      "IT": 6601,
      "argue": 6602,
      "flee": 6603,
      "optim": 6604,
      "gon": 6605,
      "tout": 6606,
      "Matt": 6607,
      "Dall": 6608,
      "disorder": 6609,
      "disappearance": 6610,
      "Follow": 6611,
      "NBA": 6612,
      "lax": 6613,
      "astic": 6614,
      "Whe": 6615,
      "stan": 6616,
      "chose": 6617,
      "busy": 6618,
      "Vi": 6619,
      "Alaska": 6620,
      "posts": 6621,
      "nell": 6622,
      "regularly": 6623,
      "copy": 6624,
      "extended": 6625,
      "otherwise": 6626,
      "amo": 6627,
      "venture": 6628,
      "restaurants": 6629,
      "species": 6630,
      "Leon": 6631,
      "starts": 6632,
      "vulnerable": 6633,
      "Ever": 6634,
      "aught": 6635,
      "roid": 6636,
      "abled": 6637,
      "types": 6638,
      "teens": 6639,
      "findings": 6640,
      "Wis": 6641,
      "elder": 6642,
      "nox": 6643,
      "Major": 6644,
      "Did": 6645,
      "asy": 6646,
      "collaps": 6647,
      "Armstrong": 6648,
      "Vice": 6649,
      "honest": 6650,
      "meetings": 6651,
      "harass": 6652,
      "sect": 6653,
      "featured": 6654,
      "TSA": 6655,
      "bun": 6656,
      "icken": 6657,
      "spons": 6658,
      "tiny": 6659,
      "amoun": 6660,
      "tickets": 6661,
      "Board": 6662,
      "terrible": 6663,
      "obtained": 6664,
      "defending": 6665,
      "zai": 6666,
      "Others": 6667,
      "subsequ": 6668,
      "Tehran": 6669,
      "stolen": 6670,
      "puts": 6671,
      "hits": 6672,
      "Dor": 6673,
      "Constitution": 6674,
      "Holder": 6675,
      "Beng": 6676,
      "buying": 6677,
      "searching": 6678,
      "torture": 6679,
      "properly": 6680,
      "intention": 6681,
      "establish": 6682,
      "vig": 6683,
      "Vietnam": 6684,
      "Land": 6685,
      "bond": 6686,
      "von": 6687,
      "Weekly": 6688,
      "Snowden": 6689,
      "anywhere": 6690,
      "centers": 6691,
      "restrictions": 6692,
      "registered": 6693,
      "accusations": 6694,
      "Jason": 6695,
      "Mot": 6696,
      "isters": 6697,
      "brings": 6698,
      "Reagan": 6699,
      "Jane": 6700,
      "boyfriend": 6701,
      "Henry": 6702,
      "PA": 6703,
      "Palestinians": 6704,
      "HS": 6705,
      "affair": 6706,
      "Brazilian": 6707,
      "1998": 6708,
      "staying": 6709,
      "cruise": 6710,
      "grass": 6711,
      "Kingdom": 6712,
      "proof": 6713,
      "atmo": 6714,
      "acle": 6715,
      "enor": 6716,
      "headquarters": 6717,
      "nationwide": 6718,
      "narrow": 6719,
      "Wind": 6720,
      "slaugh": 6721,
      "gained": 6722,
      "typically": 6723,
      "software": 6724,
      "bills": 6725,
      "nomination": 6726,
      "officially": 6727,
      "prize": 6728,
      "liberal": 6729,
      "satellite": 6730,
      "Nav": 6731,
      "Slo": 6732,
      "Maybe": 6733,
      "Tunis": 6734,
      "Rand": 6735,
      "apps": 6736,
      "contra": 6737,
      "oph": 6738,
      "pilots": 6739,
      "referred": 6740,
      "aspect": 6741,
      "asion": 6742,
      "newly": 6743,
      "anticip": 6744,
      "tu": 6745,
      "render": 6746,
      "flat": 6747,
      "talent": 6748,
      "scores": 6749,
      "Djok": 6750,
      "FDA": 6751,
      "VA": 6752,
      "Lyn": 6753,
      "lee": 6754,
      "desire": 6755,
      "electricity": 6756,
      "grees": 6757,
      "horrif": 6758,
      "68": 6759,
      "importance": 6760,
      "greg": 6761,
      "theater": 6762,
      "sounds": 6763,
      "jump": 6764,
      "obl": 6765,
      "noticed": 6766,
      "divers": 6767,
      "permanent": 6768,
      "uran": 6769,
      "Minnes": 6770,
      "minimum": 6771,
      "encounter": 6772,
      "Laura": 6773,
      "infection": 6774,
      "tears": 6775,
      "appeals": 6776,
      "capable": 6777,
      "caution": 6778,
      "Djokovic": 6779,
      "likes": 6780,
      "bery": 6781,
      "Sunni": 6782,
      "outcome": 6783,
      "stronger": 6784,
      "Academy": 6785,
      "gging": 6786,
      "stuck": 6787,
      "episode": 6788,
      "sorry": 6789,
      "abe": 6790,
      "intend": 6791,
      "finds": 6792,
      "reduced": 6793,
      "Pot": 6794,
      "ounced": 6795,
      "shad": 6796,
      "iley": 6797,
      "CBS": 6798,
      "Josh": 6799,
      "athle": 6800,
      "Look": 6801,
      "Mess": 6802,
      "legs": 6803,
      "Oper": 6804,
      "nick": 6805,
      "settlement": 6806,
      "wonderful": 6807,
      "gs": 6808,
      "Por": 6809,
      "ramp": 6810,
      "chant": 6811,
      "shed": 6812,
      "Serb": 6813,
      "effic": 6814,
      "degrees": 6815,
      "prescri": 6816,
      "communication": 6817,
      "quoted": 6818,
      "dedicated": 6819,
      "Kansas": 6820,
      "execution": 6821,
      "embassy": 6822,
      "institutions": 6823,
      "Edu": 6824,
      "height": 6825,
      "micro": 6826,
      "Dallas": 6827,
      "county": 6828,
      "sembly": 6829,
      "Minnesota": 6830,
      "Ay": 6831,
      "triumph": 6832,
      "airports": 6833,
      "swit": 6834,
      "lav": 6835,
      "limits": 6836,
      "athon": 6837,
      "Interior": 6838,
      "ikh": 6839,
      "inch": 6840,
      "arrass": 6841,
      "ache": 6842,
      "ais": 6843,
      "bla": 6844,
      "deals": 6845,
      "Philippines": 6846,
      "specifically": 6847,
      "punishment": 6848,
      "Travel": 6849,
      "Ahmed": 6850,
      "maximum": 6851,
      "interviews": 6852,
      "flash": 6853,
      "Gh": 6854,
      "ller": 6855,
      "unrest": 6856,
      "grave": 6857,
      "GA": 6858,
      "baseball": 6859,
      "kne": 6860,
      "iously": 6861,
      "apply": 6862,
      "dating": 6863,
      "aside": 6864,
      "firing": 6865,
      "Fall": 6866,
      "complaints": 6867,
      "Fl": 6868,
      "admit": 6869,
      "trafficking": 6870,
      "automatic": 6871,
      "cert": 6872,
      "lined": 6873,
      "pel": 6874,
      "curren": 6875,
      "northeast": 6876,
      "Malaysia": 6877,
      "Arsenal": 6878,
      "Speaking": 6879,
      "Lincol": 6880,
      "cation": 6881,
      "strongly": 6882,
      "Disney": 6883,
      "ourselves": 6884,
      "mart": 6885,
      "stations": 6886,
      "excess": 6887,
      "Simon": 6888,
      "chi": 6889,
      "lists": 6890,
      "Micro": 6891,
      "neighboring": 6892,
      "dry": 6893,
      "authorized": 6894,
      "pleas": 6895,
      "Rac": 6896,
      "Cuban": 6897,
      "reward": 6898,
      "uez": 6899,
      "crazy": 6900,
      "Lincoln": 6901,
      "Flo": 6902,
      "ially": 6903,
      "neither": 6904,
      "creation": 6905,
      "clothing": 6906,
      "wreck": 6907,
      "ierce": 6908,
      "toler": 6909,
      "opher": 6910,
      "Edwards": 6911,
      "oming": 6912,
      "pressed": 6913,
      "Exper": 6914,
      "roat": 6915,
      "sail": 6916,
      "2015": 6917,
      "vard": 6918,
      "conce": 6919,
      "Gary": 6920,
      "variety": 6921,
      "zo": 6922,
      "conven": 6923,
      "vital": 6924,
      "effectively": 6925,
      "contained": 6926,
      "monitoring": 6927,
      "Holland": 6928,
      "Greek": 6929,
      "inn": 6930,
      "follows": 6931,
      "Wales": 6932,
      "metal": 6933,
      "Rev": 6934,
      "iPad": 6935,
      "vant": 6936,
      "indictment": 6937,
      "fold": 6938,
      "factors": 6939,
      "Water": 6940,
      "1994": 6941,
      "wire": 6942,
      "creative": 6943,
      "cus": 6944,
      "Hampshire": 6945,
      "struggled": 6946,
      "Project": 6947,
      "employed": 6948,
      "documentary": 6949,
      "Morsy": 6950,
      "yer": 6951,
      "Fur": 6952,
      "fru": 6953,
      "embarrass": 6954,
      "prepare": 6955,
      "Soviet": 6956,
      "destruction": 6957,
      "Steven": 6958,
      "adviser": 6959,
      "Walker": 6960,
      "MP": 6961,
      "exposed": 6962,
      "hase": 6963,
      "Naz": 6964,
      "Ye": 6965,
      "resulted": 6966,
      "IN": 6967,
      "Tam": 6968,
      "irty": 6969,
      "uela": 6970,
      "motion": 6971,
      "finals": 6972,
      "winners": 6973,
      "Cher": 6974,
      "longtime": 6975,
      "missions": 6976,
      "tear": 6977,
      "politically": 6978,
      "demanding": 6979,
      "Wiscons": 6980,
      "odes": 6981,
      "shoes": 6982,
      "substant": 6983,
      "coffee": 6984,
      "amber": 6985,
      "insula": 6986,
      "tox": 6987,
      "irts": 6988,
      "reveal": 6989,
      "prene": 6990,
      "Case": 6991,
      "Mit": 6992,
      "wra": 6993,
      "festival": 6994,
      "areness": 6995,
      "gged": 6996,
      "luck": 6997,
      "rose": 6998,
      "rie": 6999,
      "compar": 7000,
      "successfully": 7001,
      "Wisconsin": 7002,
      "shootings": 7003,
      "gam": 7004,
      "islands": 7005,
      "addressed": 7006,
      "fiscal": 7007,
      "possession": 7008,
      "Roger": 7009,
      "Safety": 7010,
      "frame": 7011,
      "1980s": 7012,
      "Spring": 7013,
      "airlines": 7014,
      "burning": 7015,
      "Watson": 7016,
      "Ted": 7017,
      "angers": 7018,
      "sexually": 7019,
      "Fund": 7020,
      "tha": 7021,
      "courage": 7022,
      "coc": 7023,
      "beauty": 7024,
      "inquiry": 7025,
      "carbon": 7026,
      "collapse": 7027,
      "Ku": 7028,
      "gift": 7029,
      "alert": 7030,
      "athy": 7031,
      "regulations": 7032,
      "squad": 7033,
      "enormous": 7034,
      "mud": 7035,
      "visible": 7036,
      "entirely": 7037,
      "expl": 7038,
      "disappoint": 7039,
      "guide": 7040,
      "Sandy": 7041,
      "harder": 7042,
      "posing": 7043,
      "cient": 7044,
      "Such": 7045,
      "otic": 7046,
      "condemned": 7047,
      "conservatives": 7048,
      "divorce": 7049,
      "rah": 7050,
      "empty": 7051,
      "gunman": 7052,
      "bullet": 7053,
      "medicine": 7054,
      "Without": 7055,
      "petition": 7056,
      "engage": 7057,
      "dominated": 7058,
      "tribute": 7059,
      "overnight": 7060,
      "boats": 7061,
      "oblig": 7062,
      "Stand": 7063,
      "loaded": 7064,
      "habit": 7065,
      "collapsed": 7066,
      "Gun": 7067,
      "rehab": 7068,
      "Barbar": 7069,
      "instance": 7070,
      "aded": 7071,
      "diet": 7072,
      "Indiana": 7073,
      "enjoyed": 7074,
      "overwhelming": 7075,
      "icient": 7076,
      "auction": 7077,
      "kidnapping": 7078,
      "Han": 7079,
      "Parliament": 7080,
      "Gil": 7081,
      "Chile": 7082,
      "compens": 7083,
      "grav": 7084,
      "umping": 7085,
      "consistent": 7086,
      "actual": 7087,
      "arrive": 7088,
      "Indonesia": 7089,
      "Brotherhood": 7090,
      "Khan": 7091,
      "hunt": 7092,
      "pros": 7093,
      "protected": 7094,
      "Netany": 7095,
      "manufactur": 7096,
      "Peace": 7097,
      "discussed": 7098,
      "extensive": 7099,
      "Wim": 7100,
      "preparing": 7101,
      "anybody": 7102,
      "Reid": 7103,
      "storms": 7104,
      "taught": 7105,
      "olas": 7106,
      "contrast": 7107,
      "Netanyahu": 7108,
      "tape": 7109,
      "usky": 7110,
      "bom": 7111,
      "wine": 7112,
      "FAA": 7113,
      "Larry": 7114,
      "Matthew": 7115,
      "offices": 7116,
      "Society": 7117,
      "enthus": 7118,
      "Vill": 7119,
      "thrown": 7120,
      "walls": 7121,
      "Jennifer": 7122,
      "67": 7123,
      "cro": 7124,
      "legitimate": 7125,
      "portray": 7126,
      "trend": 7127,
      "Rome": 7128,
      "subs": 7129,
      "defendant": 7130,
      "anmar": 7131,
      "marketing": 7132,
      "Common": 7133,
      "classes": 7134,
      "bombings": 7135,
      "invited": 7136,
      "entre": 7137,
      "continent": 7138,
      "Knox": 7139,
      "totally": 7140,
      "Jong": 7141,
      "shelter": 7142,
      "atmosphere": 7143,
      "ulous": 7144,
      "Myanmar": 7145,
      "Sav": 7146,
      "guess": 7147,
      "Sandusky": 7148,
      "revenue": 7149,
      "imming": 7150,
      "hazi": 7151,
      "Secret": 7152,
      "reasonable": 7153,
      "Ster": 7154,
      "string": 7155,
      "bury": 7156,
      "classic": 7157,
      "Guardi": 7158,
      "infected": 7159,
      "stability": 7160,
      "entry": 7161,
      "disappointed": 7162,
      "Charlie": 7163,
      "Irish": 7164,
      "rolled": 7165,
      "Lord": 7166,
      "Ark": 7167,
      "championship": 7168,
      "Victoria": 7169,
      "stig": 7170,
      "perspect": 7171,
      "',": 7172,
      "repair": 7173,
      "1996": 7174,
      "Dem": 7175,
      "roots": 7176,
      "sensitive": 7177,
      "adopted": 7178,
      "Thomp": 7179,
      "911": 7180,
      "practices": 7181,
      "shr": 7182,
      "Mars": 7183,
      "Transportation": 7184,
      "wid": 7185,
      "defended": 7186,
      "sis": 7187,
      "onathan": 7188,
      "consumer": 7189,
      "Sho": 7190,
      "ox": 7191,
      "discovery": 7192,
      "ael": 7193,
      "Seattle": 7194,
      "models": 7195,
      "yang": 7196,
      "enko": 7197,
      "Stra": 7198,
      "humans": 7199,
      "competitive": 7200,
      "imposed": 7201,
      "iers": 7202,
      "babies": 7203,
      "technical": 7204,
      "Colombia": 7205,
      "resent": 7206,
      "hadn": 7207,
      "Alan": 7208,
      "pace": 7209,
      "debris": 7210,
      "Thompson": 7211,
      "Yan": 7212,
      "pages": 7213,
      "denies": 7214,
      "packed": 7215,
      "aggressive": 7216,
      "Town": 7217,
      "waves": 7218,
      "assage": 7219,
      "requests": 7220,
      "vacation": 7221,
      "probation": 7222,
      "hill": 7223,
      "hitting": 7224,
      "Authority": 7225,
      "iga": 7226,
      "aired": 7227,
      "mentioned": 7228,
      "hide": 7229,
      "blind": 7230,
      "urb": 7231,
      "Bayern": 7232,
      "Rou": 7233,
      "mere": 7234,
      "procedures": 7235,
      "informed": 7236,
      "concent": 7237,
      "pts": 7238,
      "ici": 7239,
      "concert": 7240,
      "dialogue": 7241,
      "sam": 7242,
      "cooperation": 7243,
      "Thanks": 7244,
      "anny": 7245,
      "represented": 7246,
      "Utah": 7247,
      "ricul": 7248,
      "necessarily": 7249,
      "mixed": 7250,
      "85": 7251,
      "hired": 7252,
      "nurs": 7253,
      "adem": 7254,
      "folks": 7255,
      "Barbara": 7256,
      "Mem": 7257,
      "division": 7258,
      "Bab": 7259,
      "Jonathan": 7260,
      "Swit": 7261,
      "ati": 7262,
      "aret": 7263,
      "handling": 7264,
      "camps": 7265,
      "Tai": 7266,
      "uncertain": 7267,
      "Nether": 7268,
      "abandoned": 7269,
      "Detro": 7270,
      "everywhere": 7271,
      "hacking": 7272,
      "Nevada": 7273,
      "kinds": 7274,
      "Benghazi": 7275,
      "contam": 7276,
      "Special": 7277,
      "stron": 7278,
      "solar": 7279,
      "replaced": 7280,
      "Microsoft": 7281,
      "interviewed": 7282,
      "Detroit": 7283,
      "photographs": 7284,
      "trapped": 7285,
      "Stewart": 7286,
      "shif": 7287,
      "chosen": 7288,
      "tools": 7289,
      "Wel": 7290,
      "collabor": 7291,
      "vaccine": 7292,
      "thal": 7293,
      "itage": 7294,
      "computers": 7295,
      "physic": 7296,
      "1970s": 7297,
      "intervention": 7298,
      "awareness": 7299,
      "Haram": 7300,
      "contacted": 7301,
      "Hawaii": 7302,
      "fishing": 7303,
      "threw": 7304,
      "foundation": 7305,
      "extraordinary": 7306,
      "Shiite": 7307,
      "iders": 7308,
      "zero": 7309,
      "Ker": 7310,
      "cip": 7311,
      "borders": 7312,
      "violation": 7313,
      "Christopher": 7314,
      "Shaba": 7315,
      "goods": 7316,
      "awarded": 7317,
      "Gib": 7318,
      "Jess": 7319,
      "pes": 7320,
      "ranked": 7321,
      "followers": 7322,
      "scientific": 7323,
      "Had": 7324,
      "bedroom": 7325,
      "essions": 7326,
      "crackdown": 7327,
      "escaped": 7328,
      "Netherlands": 7329,
      "Quest": 7330,
      "spotted": 7331,
      "volunteers": 7332,
      "entertainment": 7333,
      "flew": 7334,
      "dying": 7335,
      "dressed": 7336,
      "license": 7337,
      "tall": 7338,
      "investigations": 7339,
      "Shabaab": 7340,
      "ups": 7341,
      "industrial": 7342,
      "Wo": 7343,
      "improved": 7344,
      "Mos": 7345,
      "chest": 7346,
      "slightly": 7347,
      "AE": 7348,
      "recon": 7349,
      "vince": 7350,
      "burst": 7351,
      "Everyone": 7352,
      "representing": 7353,
      "manner": 7354,
      "Venezuela": 7355,
      "Gates": 7356,
      "Pistor": 7357,
      "cells": 7358,
      "Craig": 7359,
      "prominent": 7360,
      "Nelson": 7361,
      "Leg": 7362,
      "protecting": 7363,
      "violations": 7364,
      "Rio": 7365,
      "lifted": 7366,
      "IDS": 7367,
      "Hond": 7368,
      "forcing": 7369,
      "64": 7370,
      "suddenly": 7371,
      "deficit": 7372,
      "participate": 7373,
      "Pistorius": 7374,
      "incent": 7375,
      "Ly": 7376,
      "memories": 7377,
      "Rus": 7378,
      "sein": 7379,
      "riots": 7380,
      "worn": 7381,
      "Conserv": 7382,
      "cleared": 7383,
      "joining": 7384,
      "partnership": 7385,
      "devastating": 7386,
      "regions": 7387,
      "racist": 7388,
      "ila": 7389,
      "Rodrig": 7390,
      "shout": 7391,
      "apore": 7392,
      "eping": 7393,
      "Paren": 7394,
      "Cole": 7395,
      "HE": 7396,
      "Vat": 7397,
      "differences": 7398,
      "scape": 7399,
      "suits": 7400,
      "ensus": 7401,
      "relationships": 7402,
      "Bloom": 7403,
      "rescued": 7404,
      "designer": 7405,
      "slaughter": 7406,
      "upcoming": 7407,
      "Columbia": 7408,
      "enemy": 7409,
      "solve": 7410,
      "strateg": 7411,
      "Bureau": 7412,
      "Power": 7413,
      "grapher": 7414,
      "Singapore": 7415,
      "aya": 7416,
      "Kurdish": 7417,
      "crowds": 7418,
      "athing": 7419,
      "py": 7420,
      "loud": 7421,
      "entreprene": 7422,
      "headlines": 7423,
      "Bru": 7424,
      "Key": 7425,
      "elig": 7426,
      "covering": 7427,
      "surrounded": 7428,
      "childhood": 7429,
      "elements": 7430,
      "Gon": 7431,
      "zen": 7432,
      "inations": 7433,
      "wounds": 7434,
      "silver": 7435,
      "jurors": 7436,
      "nie": 7437,
      "Alexander": 7438,
      "Book": 7439,
      "ambit": 7440,
      "partisan": 7441,
      "Crit": 7442,
      "Pu": 7443,
      "begun": 7444,
      "personally": 7445,
      "keeps": 7446,
      "Boko": 7447,
      "papers": 7448,
      "defender": 7449,
      "Perhaps": 7450,
      "cult": 7451,
      "swim": 7452,
      "liver": 7453,
      "nett": 7454,
      "Hero": 7455,
      "arguments": 7456,
      "demanded": 7457,
      "Wimbled": 7458,
      "Wild": 7459,
      "understood": 7460,
      "Edward": 7461,
      "deployed": 7462,
      "Wimbledon": 7463,
      "lab": 7464,
      "forever": 7465,
      "lean": 7466,
      "adequ": 7467,
      "MS": 7468,
      "mothers": 7469,
      "earning": 7470,
      "ieber": 7471,
      "astr": 7472,
      "strict": 7473,
      "babwe": 7474,
      "pending": 7475,
      "parking": 7476,
      "Zimbabwe": 7477,
      "Boeing": 7478,
      "telephone": 7479,
      "representatives": 7480,
      "Bowl": 7481,
      "Der": 7482,
      "lunch": 7483,
      "fees": 7484,
      "poc": 7485,
      "Leader": 7486,
      "casualties": 7487,
      "cable": 7488,
      "Amazon": 7489,
      "AF": 7490,
      "Ti": 7491,
      "aire": 7492,
      "ateful": 7493,
      "quit": 7494,
      "vens": 7495,
      "promises": 7496,
      "complicated": 7497,
      "iew": 7498,
      "haul": 7499,
      "tourism": 7500,
      "knife": 7501,
      "78": 7502,
      "faster": 7503,
      "unve": 7504,
      "lift": 7505,
      "campaigns": 7506,
      "sufficient": 7507,
      "AD": 7508,
      "scared": 7509,
      "signing": 7510,
      "Latino": 7511,
      "Affairs": 7512,
      "icing": 7513,
      "ported": 7514,
      "nobody": 7515,
      "Switzer": 7516,
      "Whit": 7517,
      "frequently": 7518,
      "cocaine": 7519,
      "Eth": 7520,
      "units": 7521,
      "regret": 7522,
      "tourist": 7523,
      "Vatican": 7524,
      "normally": 7525,
      "Nancy": 7526,
      "Gall": 7527,
      "Jobs": 7528,
      "entering": 7529,
      "1997": 7530,
      "taxpay": 7531,
      "challenging": 7532,
      "Crown": 7533,
      "owns": 7534,
      "icket": 7535,
      "midfield": 7536,
      "combined": 7537,
      "66": 7538,
      "ighth": 7539,
      "itol": 7540,
      "visits": 7541,
      "alle": 7542,
      "Android": 7543,
      "rell": 7544,
      "isher": 7545,
      "firefighters": 7546,
      "Control": 7547,
      "arrival": 7548,
      "Doctors": 7549,
      "wore": 7550,
      "ancient": 7551,
      "Kate": 7552,
      "gt": 7553,
      "tomor": 7554,
      "tex": 7555,
      "clients": 7556,
      "arra": 7557,
      "tomorrow": 7558,
      "profession": 7559,
      "Sometimes": 7560,
      "gathering": 7561,
      "idelines": 7562,
      "sion": 7563,
      "Switzerland": 7564,
      "egg": 7565,
      "backs": 7566,
      "Road": 7567,
      "mails": 7568,
      "Mohamed": 7569,
      "Lim": 7570,
      "Poland": 7571,
      "Eastern": 7572,
      "Swiss": 7573,
      "orses": 7574,
      "answered": 7575,
      "pursue": 7576,
      "opponent": 7577,
      "F1": 7578,
      "airstrikes": 7579,
      "links": 7580,
      "clinic": 7581,
      "NY": 7582,
      "grat": 7583,
      "grandmother": 7584,
      "semi": 7585,
      "crush": 7586,
      "approached": 7587,
      "posure": 7588,
      "Cir": 7589,
      "Sony": 7590,
      "praised": 7591,
      "shops": 7592,
      "initiative": 7593,
      "Bridge": 7594,
      "classified": 7595,
      "Emer": 7596,
      "mechan": 7597,
      "anymore": 7598,
      "Station": 7599,
      "fined": 7600,
      "....": 7601,
      "fairly": 7602,
      "atal": 7603,
      "predicted": 7604,
      "precedented": 7605,
      "Ug": 7606,
      "Dream": 7607,
      "Sgt": 7608,
      "heim": 7609,
      "chell": 7610,
      "barri": 7611,
      "ensu": 7612,
      "probe": 7613,
      "hosts": 7614,
      "Hamilton": 7615,
      "Ice": 7616,
      "aced": 7617,
      "Commissioner": 7618,
      "Cruz": 7619,
      "satisf": 7620,
      "observers": 7621,
      "raped": 7622,
      "explosives": 7623,
      "purchase": 7624,
      "Ell": 7625,
      "revel": 7626,
      "detailed": 7627,
      "complained": 7628,
      "AIDS": 7629,
      "twe": 7630,
      "recession": 7631,
      "sover": 7632,
      "blocked": 7633,
      "transportation": 7634,
      "permission": 7635,
      "regon": 7636,
      "lins": 7637,
      "idav": 7638,
      "forth": 7639,
      "homeless": 7640,
      "warnings": 7641,
      "choices": 7642,
      "Please": 7643,
      "experiment": 7644,
      "Amnesty": 7645,
      "Metro": 7646,
      "fli": 7647,
      "nonprofit": 7648,
      "column": 7649,
      "deny": 7650,
      "Winter": 7651,
      "ams": 7652,
      "posting": 7653,
      "Oregon": 7654,
      "Right": 7655,
      "aldo": 7656,
      "iance": 7657,
      "screening": 7658,
      "attempting": 7659,
      "Dick": 7660,
      "Cook": 7661,
      "delayed": 7662,
      "RC": 7663,
      "cot": 7664,
      "jad": 7665,
      "unprecedented": 7666,
      "Jerusal": 7667,
      "Jerusalem": 7668,
      "powered": 7669,
      "popularity": 7670,
      "Broad": 7671,
      "gents": 7672,
      "remin": 7673,
      "Ging": 7674,
      "mont": 7675,
      "distr": 7676,
      "Berlin": 7677,
      "Nigerian": 7678,
      "remarkable": 7679,
      "illegally": 7680,
      "collected": 7681,
      "phe": 7682,
      "abad": 7683,
      "wage": 7684,
      "readers": 7685,
      "bike": 7686,
      "reven": 7687,
      "Ta": 7688,
      "academ": 7689,
      "marry": 7690,
      "ixon": 7691,
      "iki": 7692,
      "Hurricane": 7693,
      "mess": 7694,
      "utter": 7695,
      "crete": 7696,
      "awn": 7697,
      "nominee": 7698,
      "graduate": 7699,
      "vowed": 7700,
      "cig": 7701,
      "finger": 7702,
      "Freedom": 7703,
      "phil": 7704,
      "situ": 7705,
      "encouraged": 7706,
      "voc": 7707,
      "sacrif": 7708,
      "speculation": 7709,
      "HO": 7710,
      "Pho": 7711,
      "inaug": 7712,
      "ria": 7713,
      "rhe": 7714,
      "inho": 7715,
      "acks": 7716,
      "Morris": 7717,
      "roles": 7718,
      "kidnapped": 7719,
      "chaos": 7720,
      "Cape": 7721,
      "pion": 7722,
      "judicial": 7723,
      "amounts": 7724,
      "Jac": 7725,
      "iller": 7726,
      "affidav": 7727,
      "awards": 7728,
      "cow": 7729,
      "95": 7730,
      "Gill": 7731,
      "implic": 7732,
      "echo": 7733,
      "interrog": 7734,
      "funded": 7735,
      "Sweden": 7736,
      "GB": 7737,
      "lessons": 7738,
      "studio": 7739,
      "bean": 7740,
      "lung": 7741,
      "rat": 7742,
      "ando": 7743,
      "%.": 7744,
      "provin": 7745,
      "azz": 7746,
      "hire": 7747,
      "schedule": 7748,
      "crews": 7749,
      "Adams": 7750,
      "Amb": 7751,
      "pez": 7752,
      "manage": 7753,
      "attending": 7754,
      "Prof": 7755,
      "Sterling": 7756,
      "typical": 7757,
      "Dev": 7758,
      "imprison": 7759,
      "rett": 7760,
      "Econom": 7761,
      "Vol": 7762,
      "defendants": 7763,
      "resolve": 7764,
      "slowly": 7765,
      "franch": 7766,
      "finance": 7767,
      "investors": 7768,
      "relevant": 7769,
      "drun": 7770,
      "apology": 7771,
      "aviation": 7772,
      "operated": 7773,
      "cuss": 7774,
      "hen": 7775,
      "olds": 7776,
      "Bry": 7777,
      "Tot": 7778,
      "Nearly": 7779,
      "120": 7780,
      "unions": 7781,
      "cking": 7782,
      "rand": 7783,
      "Garcia": 7784,
      "Homeland": 7785,
      "Photo": 7786,
      "fields": 7787,
      "Capitol": 7788,
      "impressive": 7789,
      "jumped": 7790,
      "relax": 7791,
      "noting": 7792,
      "Andre": 7793,
      "breach": 7794,
      "procedure": 7795,
      "Pop": 7796,
      "Bashar": 7797,
      "perspective": 7798,
      "Jen": 7799,
      "Test": 7800,
      "1995": 7801,
      "iconic": 7802,
      "Mountain": 7803,
      "enjo": 7804,
      "gym": 7805,
      "factory": 7806,
      "exciting": 7807,
      "requested": 7808,
      "oting": 7809,
      "Media": 7810,
      "ende": 7811,
      "endor": 7812,
      "invasion": 7813,
      "criminals": 7814,
      "length": 7815,
      "cott": 7816,
      "itchen": 7817,
      "eding": 7818,
      "extend": 7819,
      "ili": 7820,
      "racism": 7821,
      "smoking": 7822,
      "Vide": 7823,
      "oldest": 7824,
      "producing": 7825,
      "Justin": 7826,
      "viewed": 7827,
      "falls": 7828,
      "anne": 7829,
      "funny": 7830,
      "Lank": 7831,
      "shall": 7832,
      "Through": 7833,
      "Damasc": 7834,
      "literally": 7835,
      "sop": 7836,
      "musical": 7837,
      "hosted": 7838,
      "fortunate": 7839,
      "nurse": 7840,
      "convin": 7841,
      "trips": 7842,
      "Develop": 7843,
      "SB": 7844,
      "Terry": 7845,
      "ulty": 7846,
      "fundamental": 7847,
      "62": 7848,
      "Gab": 7849,
      "displaced": 7850,
      "Damascus": 7851,
      "vy": 7852,
      "rolling": 7853,
      "Abdullah": 7854,
      "disputed": 7855,
      "recall": 7856,
      "element": 7857,
      "divided": 7858,
      "battling": 7859,
      "Bos": 7860,
      "Chair": 7861,
      "Pres": 7862,
      "Tar": 7863,
      "ira": 7864,
      "72": 7865,
      "downtown": 7866,
      "Network": 7867,
      "wars": 7868,
      "Hispanic": 7869,
      "subsid": 7870,
      "missiles": 7871,
      "pm": 7872,
      "memo": 7873,
      "crossed": 7874,
      "detainees": 7875,
      "wich": 7876,
      "cles": 7877,
      "rounds": 7878,
      "spots": 7879,
      "Warren": 7880,
      "resigned": 7881,
      "Form": 7882,
      "riding": 7883,
      "questioning": 7884,
      "basically": 7885,
      "lers": 7886,
      "holes": 7887,
      "Sub": 7888,
      "ahl": 7889,
      "Deputy": 7890,
      "desperate": 7891,
      "investigated": 7892,
      "Weather": 7893,
      "Rodriguez": 7894,
      "indeed": 7895,
      "ours": 7896,
      "significantly": 7897,
      "Jesus": 7898,
      "concrete": 7899,
      "apped": 7900,
      "Pyong": 7901,
      "Sri": 7902,
      "bish": 7903,
      "ximately": 7904,
      "hidden": 7905,
      "rd": 7906,
      "sustained": 7907,
      "fake": 7908,
      "supports": 7909,
      "Lopez": 7910,
      "entit": 7911,
      "inmates": 7912,
      "Phillips": 7913,
      "Arkansas": 7914,
      "Corps": 7915,
      "coordin": 7916,
      "Dra": 7917,
      "jac": 7918,
      "oust": 7919,
      "ranged": 7920,
      "touched": 7921,
      "Juan": 7922,
      "convinced": 7923,
      "Lan": 7924,
      "Mour": 7925,
      "hij": 7926,
      "tees": 7927,
      "Harvard": 7928,
      "destination": 7929,
      "Bahrain": 7930,
      "Fre": 7931,
      "Take": 7932,
      "ugal": 7933,
      "payments": 7934,
      "Peru": 7935,
      "meter": 7936,
      "checked": 7937,
      "presidents": 7938,
      "Karzai": 7939,
      "Pyongyang": 7940,
      "ardo": 7941,
      "oping": 7942,
      "poli": 7943,
      "governing": 7944,
      "schol": 7945,
      "Awards": 7946,
      "humanity": 7947,
      "qualified": 7948,
      "Murdo": 7949,
      "Gri": 7950,
      "Hear": 7951,
      "battery": 7952,
      "resignation": 7953,
      "please": 7954,
      "motivated": 7955,
      "rhetor": 7956,
      "serves": 7957,
      "transl": 7958,
      "multi": 7959,
      "moderate": 7960,
      "odds": 7961,
      "seventh": 7962,
      "lake": 7963,
      "badly": 7964,
      "Somali": 7965,
      "ette": 7966,
      "nights": 7967,
      "Carl": 7968,
      "suspicion": 7969,
      "Later": 7970,
      "Whether": 7971,
      "Local": 7972,
      "inals": 7973,
      "obtain": 7974,
      "cured": 7975,
      "Global": 7976,
      "invent": 7977,
      "theft": 7978,
      "Nobel": 7979,
      "conversations": 7980,
      "deserve": 7981,
      "application": 7982,
      "therefore": 7983,
      "eign": 7984,
      "cous": 7985,
      "eline": 7986,
      "Cho": 7987,
      "vous": 7988,
      "poison": 7989,
      "attered": 7990,
      "ography": 7991,
      "Costa": 7992,
      "respondent": 7993,
      "Drug": 7994,
      "aint": 7995,
      "windows": 7996,
      "isolated": 7997,
      "gross": 7998,
      "voices": 7999,
      "bone": 8000,
      "massacre": 8001,
      "performing": 8002,
      "vak": 8003,
      "pope": 8004,
      "Crist": 8005,
      "aria": 8006,
      "erez": 8007,
      "felony": 8008,
      "Lam": 8009,
      "ulations": 8010,
      "maintained": 8011,
      "Brooklyn": 8012,
      "advocates": 8013,
      "Domin": 8014,
      "discussions": 8015,
      "lobby": 8016,
      "Cons": 8017,
      "iber": 8018,
      "Revolution": 8019,
      "exit": 8020,
      "ums": 8021,
      "Forces": 8022,
      ",'\"": 8023,
      "exploded": 8024,
      "Sports": 8025,
      "inejad": 8026,
      "ministers": 8027,
      "hai": 8028,
      "elite": 8029,
      "Arch": 8030,
      "Philip": 8031,
      "handful": 8032,
      "Howard": 8033,
      "assets": 8034,
      "backing": 8035,
      "Protest": 8036,
      "Sab": 8037,
      "beer": 8038,
      "1993": 8039,
      "photographer": 8040,
      "gor": 8041,
      "osex": 8042,
      "mistakes": 8043,
      "(\"": 8044,
      "ambul": 8045,
      "iang": 8046,
      "yach": 8047,
      "crying": 8048,
      "ication": 8049,
      "ears": 8050,
      "affidavit": 8051,
      "percentage": 8052,
      "ibilities": 8053,
      "Max": 8054,
      "feared": 8055,
      "judgment": 8056,
      "strategic": 8057,
      "Tsar": 8058,
      "theme": 8059,
      "Hussein": 8060,
      "Masters": 8061,
      "1992": 8062,
      "Gi": 8063,
      "Lisa": 8064,
      "uts": 8065,
      "iron": 8066,
      "libr": 8067,
      "asts": 8068,
      "idents": 8069,
      "jection": 8070,
      "breath": 8071,
      "smile": 8072,
      "indicate": 8073,
      "fate": 8074,
      "Sul": 8075,
      "69": 8076,
      "ranking": 8077,
      "Command": 8078,
      "sporting": 8079,
      "murdered": 8080,
      "erupted": 8081,
      "Tripoli": 8082,
      "Crim": 8083,
      "Friend": 8084,
      "mod": 8085,
      "autop": 8086,
      "shell": 8087,
      "somewhere": 8088,
      "Business": 8089,
      "tos": 8090,
      "suspicious": 8091,
      "defeated": 8092,
      "courtroom": 8093,
      "retirement": 8094,
      "aler": 8095,
      "rance": 8096,
      "generations": 8097,
      "southeast": 8098,
      "freed": 8099,
      "uan": 8100,
      "artisan": 8101,
      "izon": 8102,
      "intens": 8103,
      "hopeful": 8104,
      "rushed": 8105,
      "liked": 8106,
      "tsun": 8107,
      "attacking": 8108,
      "Gonz": 8109,
      "gust": 8110,
      "Ahmadinejad": 8111,
      "Ener": 8112,
      "20th": 8113,
      "electronic": 8114,
      "returns": 8115,
      "donations": 8116,
      "graphic": 8117,
      "mall": 8118,
      "hiding": 8119,
      "horses": 8120,
      "raises": 8121,
      "extent": 8122,
      "celebrities": 8123,
      "Connell": 8124,
      "rot": 8125,
      "63": 8126,
      "Bren": 8127,
      "exposure": 8128,
      "McL": 8129,
      "emerging": 8130,
      "omed": 8131,
      "companied": 8132,
      "bacter": 8133,
      "bat": 8134,
      "ranging": 8135,
      "senators": 8136,
      "speaks": 8137,
      "oles": 8138,
      "explosive": 8139,
      "silence": 8140,
      "illo": 8141,
      "soil": 8142,
      "spin": 8143,
      "Bell": 8144,
      "cyber": 8145,
      "dictator": 8146,
      "Prize": 8147,
      "Ronaldo": 8148,
      "thin": 8149,
      "aftermath": 8150,
      "sentencing": 8151,
      "Av": 8152,
      "Mount": 8153,
      "teor": 8154,
      "applied": 8155,
      "1990": 8156,
      "yellow": 8157,
      "Vis": 8158,
      "cope": 8159,
      "combination": 8160,
      "centre": 8161,
      "dub": 8162,
      "promising": 8163,
      "Cas": 8164,
      "currency": 8165,
      "Formula": 8166,
      "politician": 8167,
      "Ferrari": 8168,
      "conver": 8169,
      "Hope": 8170,
      "shares": 8171,
      "Mother": 8172,
      "fierce": 8173,
      "violated": 8174,
      "spotlight": 8175,
      "Tibet": 8176,
      "cord": 8177,
      "rarely": 8178,
      "compromise": 8179,
      "spur": 8180,
      "LL": 8181,
      "pup": 8182,
      "ilit": 8183,
      "phr": 8184,
      "therapy": 8185,
      "1991": 8186,
      "midfielder": 8187,
      "Gingrich": 8188,
      "jan": 8189,
      "tracks": 8190,
      "witnessed": 8191,
      "barely": 8192,
      "Ghana": 8193,
      "stake": 8194,
      "loan": 8195,
      "Catherine": 8196,
      "recognition": 8197,
      "farmers": 8198,
      "Pay": 8199,
      "institution": 8200,
      "dign": 8201,
      "Jessica": 8202,
      "sovereign": 8203,
      "proto": 8204,
      "nels": 8205,
      "Thousands": 8206,
      "1960s": 8207,
      "march": 8208,
      "hua": 8209,
      "incredibly": 8210,
      "error": 8211,
      "prelim": 8212,
      "issions": 8213,
      "ierra": 8214,
      "overcome": 8215,
      "Nich": 8216,
      "sung": 8217,
      "Never": 8218,
      "achieved": 8219,
      "orious": 8220,
      "Dol": 8221,
      "ora": 8222,
      "iser": 8223,
      "Share": 8224,
      ".'\"": 8225,
      "teenage": 8226,
      "customer": 8227,
      "iatric": 8228,
      "bureau": 8229,
      "ranks": 8230,
      "hostage": 8231,
      "teaching": 8232,
      "Kabul": 8233,
      "Pass": 8234,
      "reference": 8235,
      "cargo": 8236,
      "urgent": 8237,
      "placing": 8238,
      "sink": 8239,
      "uct": 8240,
      "Beat": 8241,
      "Murdoch": 8242,
      "prayers": 8243,
      "throwing": 8244,
      "ae": 8245,
      "ballot": 8246,
      "opposite": 8247,
      "iques": 8248,
      "feelings": 8249,
      "Berg": 8250,
      "stressed": 8251,
      "Kay": 8252,
      "elderly": 8253,
      "accompanied": 8254,
      "striking": 8255,
      "tips": 8256,
      "searched": 8257,
      "acres": 8258,
      "icks": 8259,
      "Vo": 8260,
      "exclusive": 8261,
      "decline": 8262,
      "swimming": 8263,
      "ultimate": 8264,
      "Bot": 8265,
      "Khal": 8266,
      "resulting": 8267,
      "Until": 8268,
      "persu": 8269,
      "safely": 8270,
      "Hugh": 8271,
      "depression": 8272,
      "clar": 8273,
      "Speaker": 8274,
      "Dise": 8275,
      "Fern": 8276,
      "Tan": 8277,
      "oke": 8278,
      "youngest": 8279,
      "robbery": 8280,
      "Sale": 8281,
      "priest": 8282,
      "listening": 8283,
      "drawing": 8284,
      "inspiration": 8285,
      "AP": 8286,
      "Fair": 8287,
      "tribal": 8288,
      "Portugal": 8289,
      "bie": 8290,
      "clock": 8291,
      "naev": 8292,
      "proceedings": 8293,
      "evacuated": 8294,
      "recalls": 8295,
      "liner": 8296,
      "explan": 8297,
      "Unfortunately": 8298,
      "Amendment": 8299,
      "Met": 8300,
      "icate": 8301,
      "devastated": 8302,
      "accurate": 8303,
      "Tsarnaev": 8304,
      "hospitalized": 8305,
      "wealthy": 8306,
      "Ibra": 8307,
      "sme": 8308,
      "edition": 8309,
      "hell": 8310,
      "veget": 8311,
      "preliminary": 8312,
      "Knight": 8313,
      "nd": 8314,
      "Intelligence": 8315,
      "intimid": 8316,
      "valuable": 8317,
      "Veter": 8318,
      "Energy": 8319,
      "Wit": 8320,
      "ario": 8321,
      "smartphone": 8322,
      "Golden": 8323,
      "Sierra": 8324,
      "advertising": 8325,
      "illed": 8326,
      "crossing": 8327,
      "Memorial": 8328,
      "orm": 8329,
      "increases": 8330,
      "shutdown": 8331,
      "transferred": 8332,
      "comprehensive": 8333,
      "Base": 8334,
      "Messi": 8335,
      "Hard": 8336,
      "Mol": 8337,
      "sweet": 8338,
      "Kie": 8339,
      "Night": 8340,
      "rely": 8341,
      "patrol": 8342,
      "Denver": 8343,
      "scoring": 8344,
      "NSA": 8345,
      "chronic": 8346,
      "signal": 8347,
      "distur": 8348,
      "inth": 8349,
      "Fest": 8350,
      "apologized": 8351,
      "Labor": 8352,
      "Ox": 8353,
      "Vlad": 8354,
      "tired": 8355,
      "rees": 8356,
      "acular": 8357,
      "Bey": 8358,
      "singing": 8359,
      "executed": 8360,
      "troubled": 8361,
      "Gordon": 8362,
      "Syd": 8363,
      "climb": 8364,
      "settled": 8365,
      "openly": 8366,
      "Lady": 8367,
      "Assist": 8368,
      "advanced": 8369,
      "None": 8370,
      "pledged": 8371,
      "Powell": 8372,
      "fasc": 8373,
      "Sad": 8374,
      "Music": 8375,
      "tactics": 8376,
      "Hart": 8377,
      "villages": 8378,
      "dreams": 8379,
      "stretch": 8380,
      "Casey": 8381,
      "Hud": 8382,
      "referend": 8383,
      "fro": 8384,
      "pical": 8385,
      "abused": 8386,
      "sentences": 8387,
      "kicked": 8388,
      "refugee": 8389,
      "tsunami": 8390,
      "pill": 8391,
      "terrif": 8392,
      "grateful": 8393,
      "lifetime": 8394,
      "cedes": 8395,
      "delays": 8396,
      "Phoen": 8397,
      "bust": 8398,
      "Program": 8399,
      "celebrated": 8400,
      "ipartisan": 8401,
      "margin": 8402,
      "Christians": 8403,
      "minds": 8404,
      "Hills": 8405,
      "surprising": 8406,
      "pirates": 8407,
      "excell": 8408,
      "joke": 8409,
      "Oprah": 8410,
      "tweets": 8411,
      "itar": 8412,
      "cano": 8413,
      "shoulder": 8414,
      "appla": 8415,
      "stimul": 8416,
      "admits": 8417,
      "elimin": 8418,
      "compass": 8419,
      "appearances": 8420,
      "vet": 8421,
      "solutions": 8422,
      "dependent": 8423,
      "innov": 8424,
      "aims": 8425,
      "Islands": 8426,
      "constantly": 8427,
      "liest": 8428,
      "remembered": 8429,
      "Labour": 8430,
      "Having": 8431,
      "orient": 8432,
      "upper": 8433,
      "Stadium": 8434,
      "volunteer": 8435,
      "nominated": 8436,
      "dates": 8437,
      "Ronald": 8438,
      "Ball": 8439,
      "aco": 8440,
      "chap": 8441,
      "1989": 8442,
      "scrutin": 8443,
      "Hy": 8444,
      "sits": 8445,
      "controls": 8446,
      "mosque": 8447,
      "annah": 8448,
      "feder": 8449,
      "indication": 8450,
      "ighter": 8451,
      "Thank": 8452,
      "breathing": 8453,
      "Belg": 8454,
      "hanging": 8455,
      "Sydney": 8456,
      "bird": 8457,
      "hurricane": 8458,
      "Dak": 8459,
      "phic": 8460,
      "uine": 8461,
      "stom": 8462,
      "Video": 8463,
      "blocks": 8464,
      "bitter": 8465,
      "privile": 8466,
      "Rafael": 8467,
      "Congo": 8468,
      "Tiger": 8469,
      "trem": 8470,
      "veland": 8471,
      "ensions": 8472,
      "separat": 8473,
      "athlete": 8474,
      "Mob": 8475,
      "ST": 8476,
      "arrange": 8477,
      "neighbour": 8478,
      "toxic": 8479,
      "Div": 8480,
      "Ped": 8481,
      "Indeed": 8482,
      "polar": 8483,
      "meanwhile": 8484,
      "scheme": 8485,
      "eva": 8486,
      "justices": 8487,
      "angered": 8488,
      "08": 8489,
      "select": 8490,
      "breaks": 8491,
      "Ul": 8492,
      "garden": 8493,
      "ua": 8494,
      "expans": 8495,
      "voter": 8496,
      "hostages": 8497,
      "Kh": 8498,
      "moun": 8499,
      "deem": 8500,
      "phen": 8501,
      "Try": 8502,
      "WAS": 8503,
      "Wayne": 8504,
      "Education": 8505,
      "haz": 8506,
      "cker": 8507,
      "Wi": 8508,
      "thetic": 8509,
      "pleased": 8510,
      "Rolling": 8511,
      "expectations": 8512,
      "competing": 8513,
      "Austin": 8514,
      "Es": 8515,
      "harsh": 8516,
      "survival": 8517,
      "Antonio": 8518,
      "meal": 8519,
      "Bron": 8520,
      "Dave": 8521,
      "tow": 8522,
      "Hundred": 8523,
      "grid": 8524,
      "attribut": 8525,
      "approximately": 8526,
      "Front": 8527,
      "ios": 8528,
      "asser": 8529,
      "lesb": 8530,
      "assessment": 8531,
      "gered": 8532,
      "umes": 8533,
      "runner": 8534,
      "principal": 8535,
      "Radio": 8536,
      "genuine": 8537,
      "delivery": 8538,
      "Benjam": 8539,
      "kitchen": 8540,
      "Carib": 8541,
      "Ibrahim": 8542,
      "association": 8543,
      "bloody": 8544,
      "Cleveland": 8545,
      "Championship": 8546,
      "Phoenix": 8547,
      "imir": 8548,
      "ceiling": 8549,
      "Jimmy": 8550,
      "urging": 8551,
      "irates": 8552,
      "valid": 8553,
      "Silver": 8554,
      "tone": 8555,
      "Holmes": 8556,
      "executives": 8557,
      "Officer": 8558,
      "Prevention": 8559,
      "Ref": 8560,
      "Ven": 8561,
      "stages": 8562,
      "highway": 8563,
      "Delhi": 8564,
      "absence": 8565,
      "CL": 8566,
      "Row": 8567,
      "eases": 8568,
      "advised": 8569,
      "Osama": 8570,
      "constit": 8571,
      "navig": 8572,
      "Krist": 8573,
      "parks": 8574,
      "globe": 8575,
      "historical": 8576,
      "Prix": 8577,
      "referendum": 8578,
      "Buck": 8579,
      "SU": 8580,
      "thorough": 8581,
      "mainly": 8582,
      "borne": 8583,
      "cycling": 8584,
      "Benjamin": 8585,
      "tum": 8586,
      "Thai": 8587,
      "TON": 8588,
      "aga": 8589,
      "Ele": 8590,
      "proposals": 8591,
      "Munich": 8592,
      "decor": 8593,
      "conclusion": 8594,
      "hearts": 8595,
      "88": 8596,
      "fame": 8597,
      "united": 8598,
      "shame": 8599,
      "strange": 8600,
      "auth": 8601,
      "nose": 8602,
      "dispatch": 8603,
      "magnitude": 8604,
      "Cze": 8605,
      "asted": 8606,
      "expects": 8607,
      "Management": 8608,
      "Campbell": 8609,
      "acking": 8610,
      "extremists": 8611,
      "replied": 8612,
      "EC": 8613,
      "Nob": 8614,
      "sisters": 8615,
      "ros": 8616,
      "desert": 8617,
      "Bat": 8618,
      "Shang": 8619,
      "GM": 8620,
      "scan": 8621,
      "Anne": 8622,
      "substance": 8623,
      "Taiwan": 8624,
      "Head": 8625,
      "restore": 8626,
      "stunning": 8627,
      "eligible": 8628,
      "Les": 8629,
      "Nixon": 8630,
      "oured": 8631,
      "marine": 8632,
      "participants": 8633,
      "Carlos": 8634,
      "celebration": 8635,
      "ao": 8636,
      "cheap": 8637,
      "featuring": 8638,
      "Death": 8639,
      "websites": 8640,
      "Techn": 8641,
      "bipartisan": 8642,
      "pride": 8643,
      "Lohan": 8644,
      "recommended": 8645,
      "adjust": 8646,
      "convention": 8647,
      "Caribbean": 8648,
      "Crow": 8649,
      "Elect": 8650,
      "Sean": 8651,
      "sleeping": 8652,
      "Maj": 8653,
      "soul": 8654,
      "painful": 8655,
      "Bloomberg": 8656,
      "Xin": 8657,
      "oration": 8658,
      "residence": 8659,
      "Mitchell": 8660,
      "61": 8661,
      "Corp": 8662,
      "mystery": 8663,
      "Jerry": 8664,
      "Wolf": 8665,
      "parole": 8666,
      "appearing": 8667,
      "broader": 8668,
      "Belgium": 8669,
      "gren": 8670,
      "Hundreds": 8671,
      "aron": 8672,
      "Ten": 8673,
      "essentially": 8674,
      "EN": 8675,
      "Stevens": 8676,
      "princi": 8677,
      "tours": 8678,
      "birds": 8679,
      "Fle": 8680,
      "rice": 8681,
      "elev": 8682,
      "swing": 8683,
      "Vic": 8684,
      "cam": 8685,
      "inez": 8686,
      "Medicare": 8687,
      "aying": 8688,
      "rhetoric": 8689,
      "theless": 8690,
      "helicopters": 8691,
      "Brooks": 8692,
      "Company": 8693,
      "skept": 8694,
      "homicide": 8695,
      "peak": 8696,
      "context": 8697,
      "cumb": 8698,
      "Fast": 8699,
      "antan": 8700,
      "pregnancy": 8701,
      "somehow": 8702,
      "carto": 8703,
      "fruit": 8704,
      "AZ": 8705,
      "gif": 8706,
      "profits": 8707,
      "swept": 8708,
      "convent": 8709,
      "perce": 8710,
      "channel": 8711,
      "McConnell": 8712,
      "Palace": 8713,
      "trucks": 8714,
      "aven": 8715,
      "lifestyle": 8716,
      "arguing": 8717,
      "Seoul": 8718,
      "Bulger": 8719,
      "fet": 8720,
      "challenged": 8721,
      "Cabinet": 8722,
      "eighth": 8723,
      "nan": 8724,
      "orum": 8725,
      "ologies": 8726,
      "medication": 8727,
      "teammate": 8728,
      "expanded": 8729,
      "ratings": 8730,
      "sures": 8731,
      "epide": 8732,
      "rowing": 8733,
      "nationally": 8734,
      "welfare": 8735,
      "delight": 8736,
      "attitude": 8737,
      "losses": 8738,
      "Chairman": 8739,
      "aide": 8740,
      "reign": 8741,
      "rought": 8742,
      "guarantee": 8743,
      "viously": 8744,
      "responding": 8745,
      "harassment": 8746,
      "phase": 8747,
      "unexpected": 8748,
      "nest": 8749,
      "volunt": 8750,
      "Have": 8751,
      "Ki": 8752,
      "iop": 8753,
      "insurgents": 8754,
      "organizers": 8755,
      "anonymous": 8756,
      "knee": 8757,
      "Emp": 8758,
      "loves": 8759,
      "proven": 8760,
      "50s": 8761,
      "Son": 8762,
      "stall": 8763,
      "mood": 8764,
      "etta": 8765,
      "ahn": 8766,
      "Delta": 8767,
      "knocked": 8768,
      "Mans": 8769,
      "nervous": 8770,
      "leak": 8771,
      "horror": 8772,
      "Was": 8773,
      "pig": 8774,
      "halt": 8775,
      "arriving": 8776,
      "iri": 8777,
      "defect": 8778,
      "liqu": 8779,
      "personality": 8780,
      "Russell": 8781,
      "Seven": 8782,
      "equality": 8783,
      "trains": 8784,
      "ashing": 8785,
      "reads": 8786,
      "chef": 8787,
      "rapidly": 8788,
      "asyl": 8789,
      "boom": 8790,
      "loyd": 8791,
      "bomber": 8792,
      "Emergency": 8793,
      "lod": 8794,
      "diseases": 8795,
      "fantastic": 8796,
      "carefully": 8797,
      "ception": 8798,
      "REE": 8799,
      "tackle": 8800,
      "Simpson": 8801,
      "underground": 8802,
      "objects": 8803,
      "departure": 8804,
      "regardless": 8805,
      "encouraging": 8806,
      "Gard": 8807,
      "theory": 8808,
      "horrific": 8809,
      "tremend": 8810,
      "asylum": 8811,
      "Iv": 8812,
      "tonight": 8813,
      "Duke": 8814,
      "smugg": 8815,
      "transcript": 8816,
      "focusing": 8817,
      "strain": 8818,
      "narr": 8819,
      "waited": 8820,
      "physically": 8821,
      "yards": 8822,
      "Guantan": 8823,
      "Nas": 8824,
      "Gram": 8825,
      "sli": 8826,
      "unacceptable": 8827,
      "Bruce": 8828,
      "Guantanamo": 8829,
      "Mom": 8830,
      "stamp": 8831,
      "ologists": 8832,
      "burgh": 8833,
      "Vladimir": 8834,
      "Next": 8835,
      "urge": 8836,
      "ignored": 8837,
      "milk": 8838,
      "Fab": 8839,
      "yle": 8840,
      "alyst": 8841,
      "Jews": 8842,
      "improving": 8843,
      "mountains": 8844,
      "bathroom": 8845,
      "Tou": 8846,
      "Hait": 8847,
      "Petra": 8848,
      "passage": 8849,
      "hoo": 8850,
      "coastal": 8851,
      "associate": 8852,
      "humor": 8853,
      "managing": 8854,
      "politan": 8855,
      "speaker": 8856,
      "temperature": 8857,
      "root": 8858,
      "dismiss": 8859,
      "spokesperson": 8860,
      "brow": 8861,
      "disabled": 8862,
      "ucing": 8863,
      "seeks": 8864,
      "Yemeni": 8865,
      "Sark": 8866,
      "lessly": 8867,
      "tenham": 8868,
      "trading": 8869,
      "Martinez": 8870,
      "landscape": 8871,
      "suggesting": 8872,
      "stroke": 8873,
      "motive": 8874,
      "PC": 8875,
      "Military": 8876,
      "trauma": 8877,
      "Kiev": 8878,
      "Cos": 8879,
      "decre": 8880,
      "loving": 8881,
      "evalu": 8882,
      "uprising": 8883,
      "cruel": 8884,
      "ridic": 8885,
      "radiation": 8886,
      "newspapers": 8887,
      "stabbed": 8888,
      "neighborhoods": 8889,
      "enson": 8890,
      "stagram": 8891,
      "trials": 8892,
      "Ak": 8893,
      "autopsy": 8894,
      "cence": 8895,
      "Instagram": 8896,
      "Tunisia": 8897,
      "Critics": 8898,
      "hes": 8899,
      "Environ": 8900,
      "Hez": 8901,
      "expression": 8902,
      "frequent": 8903,
      "Xinhua": 8904,
      "FREE": 8905,
      "confron": 8906,
      "screaming": 8907,
      "%,": 8908,
      "situations": 8909,
      "rian": 8910,
      "iege": 8911,
      "establishment": 8912,
      "spectacular": 8913,
      "Lawrence": 8914,
      "Development": 8915,
      "Ol": 8916,
      "interim": 8917,
      "involves": 8918,
      "legislative": 8919,
      "Berry": 8920,
      "uous": 8921,
      "compensation": 8922,
      "Disease": 8923,
      "Bieber": 8924,
      "studying": 8925,
      "kiss": 8926,
      "gunmen": 8927,
      "wildlife": 8928,
      "gear": 8929,
      "haust": 8930,
      "stops": 8931,
      "grandfather": 8932,
      "Crimea": 8933,
      "Bull": 8934,
      "barrel": 8935,
      "walks": 8936,
      "gaining": 8937,
      "HING": 8938,
      "riculum": 8939,
      "osexual": 8940,
      "shake": 8941,
      "pointing": 8942,
      "hob": 8943,
      "Scottish": 8944,
      "Perez": 8945,
      "ounce": 8946,
      "raced": 8947,
      "bench": 8948,
      "productive": 8949,
      "carrier": 8950,
      "sized": 8951,
      "virtually": 8952,
      "phenomen": 8953,
      "ICE": 8954,
      "resume": 8955,
      "movements": 8956,
      "Robinson": 8957,
      "Shanghai": 8958,
      "raged": 8959,
      "trigger": 8960,
      "Wright": 8961,
      "paint": 8962,
      "shor": 8963,
      "athers": 8964,
      "equival": 8965,
      "bottle": 8966,
      "III": 8967,
      "tension": 8968,
      "triggered": 8969,
      "counting": 8970,
      "battles": 8971,
      "ozy": 8972,
      "transplant": 8973,
      "Given": 8974,
      "illust": 8975,
      "assert": 8976,
      "filing": 8977,
      "tracking": 8978,
      "Fred": 8979,
      "sav": 8980,
      "demonstration": 8981,
      "sustainable": 8982,
      "Bangl": 8983,
      "agrees": 8984,
      "handled": 8985,
      "Banglades": 8986,
      "09": 8987,
      "Amy": 8988,
      "Isa": 8989,
      "label": 8990,
      "PGA": 8991,
      "usive": 8992,
      "Chen": 8993,
      "networking": 8994,
      "arts": 8995,
      "mandate": 8996,
      "treating": 8997,
      "estimate": 8998,
      "taste": 8999,
      "attached": 9000,
      "immigrant": 9001,
      "Santorum": 9002,
      "kok": 9003,
      "Luis": 9004,
      "calcul": 9005,
      "worthy": 9006,
      "accountable": 9007,
      "heroes": 9008,
      "bollah": 9009,
      "eno": 9010,
      "uration": 9011,
      "meals": 9012,
      "midnight": 9013,
      "category": 9014,
      "Hezbollah": 9015,
      "AA": 9016,
      "Alger": 9017,
      "attackers": 9018,
      "purchased": 9019,
      "Copy": 9020,
      "carries": 9021,
      "seasons": 9022,
      "130": 9023,
      "Hon": 9024,
      "dd": 9025,
      "genoc": 9026,
      "Scient": 9027,
      "Nine": 9028,
      "gage": 9029,
      "inappropriate": 9030,
      "labe": 9031,
      "migration": 9032,
      "aser": 9033,
      "cloud": 9034,
      "holders": 9035,
      "briefly": 9036,
      "adequate": 9037,
      "issa": 9038,
      "omo": 9039,
      "annes": 9040,
      "21st": 9041,
      "vigil": 9042,
      "WASHING": 9043,
      "WASHINGTON": 9044,
      "Stat": 9045,
      "grabbed": 9046,
      "oppose": 9047,
      "flames": 9048,
      "prevented": 9049,
      "mainstream": 9050,
      "accusing": 9051,
      "writers": 9052,
      "affili": 9053,
      "oma": 9054,
      "lasted": 9055,
      "desk": 9056,
      "deadline": 9057,
      "disrup": 9058,
      "northwest": 9059,
      "Profess": 9060,
      "wick": 9061,
      "secre": 9062,
      "explore": 9063,
      "hardly": 9064,
      "Peterson": 9065,
      "exhaust": 9066,
      "pling": 9067,
      "blaze": 9068,
      "Festival": 9069,
      "Aaron": 9070,
      "welcomed": 9071,
      "UZ": 9072,
      "authen": 9073,
      "Hey": 9074,
      "ousand": 9075,
      "provoc": 9076,
      "prescription": 9077,
      "interven": 9078,
      "applications": 9079,
      "pipeline": 9080,
      "Bangkok": 9081,
      "Peninsula": 9082,
      "secured": 9083,
      "aps": 9084,
      "oca": 9085,
      "Aw": 9086,
      "ource": 9087,
      "inf": 9088,
      "stairs": 9089,
      "describing": 9090,
      "ablo": 9091,
      "plate": 9092,
      "franchise": 9093,
      "Eight": 9094,
      "careful": 9095,
      "Mul": 9096,
      "conducting": 9097,
      "citizenship": 9098,
      "sophist": 9099,
      "balls": 9100,
      "Collins": 9101,
      "Robin": 9102,
      "Czech": 9103,
      "indu": 9104,
      "fastest": 9105,
      "principles": 9106,
      "Ton": 9107,
      "Associ": 9108,
      "tablet": 9109,
      "Ow": 9110,
      "Pers": 9111,
      "kers": 9112,
      "Cambo": 9113,
      "shocking": 9114,
      "Saleh": 9115,
      "MO": 9116,
      "uncle": 9117,
      "firms": 9118,
      "formally": 9119,
      "nsic": 9120,
      "AZUZ": 9121,
      "presum": 9122,
      "appreciate": 9123,
      "substantial": 9124,
      "Orland": 9125,
      "pulling": 9126,
      "uniform": 9127,
      "900": 9128,
      "inde": 9129,
      "genet": 9130,
      "businessman": 9131,
      "aggrav": 9132,
      "billions": 9133,
      "twist": 9134,
      "lesson": 9135,
      "Cambridge": 9136,
      "Award": 9137,
      "Maine": 9138,
      "Communist": 9139,
      "Again": 9140,
      "Dal": 9141,
      "alter": 9142,
      "surrender": 9143,
      "Samsung": 9144,
      "CR": 9145,
      "Treas": 9146,
      "uff": 9147,
      "itan": 9148,
      "colon": 9149,
      "household": 9150,
      "Copyright": 9151,
      "Jere": 9152,
      "Oak": 9153,
      "gio": 9154,
      "inher": 9155,
      "lia": 9156,
      "insists": 9157,
      "stomach": 9158,
      "toile": 9159,
      "advocate": 9160,
      "smil": 9161,
      "addiction": 9162,
      "Brun": 9163,
      "eager": 9164,
      "fever": 9165,
      "Neil": 9166,
      "airplane": 9167,
      "covers": 9168,
      "efficient": 9169,
      "ifies": 9170,
      "dropping": 9171,
      "random": 9172,
      "Much": 9173,
      "Mumb": 9174,
      "Dead": 9175,
      "emissions": 9176,
      "lowest": 9177,
      "guidelines": 9178,
      "strip": 9179,
      "abducted": 9180,
      "equivalent": 9181,
      "hr": 9182,
      "persist": 9183,
      "statistics": 9184,
      "Wang": 9185,
      "len": 9186,
      "aspir": 9187,
      "inevit": 9188,
      "shooter": 9189,
      "attracted": 9190,
      "inner": 9191,
      "dubbed": 9192,
      "Bun": 9193,
      "Ret": 9194,
      "uties": 9195,
      "tropical": 9196,
      "locals": 9197,
      "Occup": 9198,
      "commissioner": 9199,
      "idal": 9200,
      "blan": 9201,
      "Tro": 9202,
      "rina": 9203,
      "thir": 9204,
      "Represent": 9205,
      "griev": 9206,
      "vessels": 9207,
      "extremist": 9208,
      "Ca": 9209,
      "producers": 9210,
      "publish": 9211,
      "collective": 9212,
      "authentic": 9213,
      "opens": 9214,
      "ails": 9215,
      "engagement": 9216,
      "Short": 9217,
      "promoting": 9218,
      "Following": 9219,
      "unlike": 9220,
      "bullying": 9221,
      "bast": 9222,
      "mone": 9223,
      "existence": 9224,
      "Criminal": 9225,
      "negotiate": 9226,
      "Omar": 9227,
      "boarding": 9228,
      "Everything": 9229,
      "Liberia": 9230,
      "BM": 9231,
      "erto": 9232,
      "uted": 9233,
      "nightm": 9234,
      "Nico": 9235,
      "determination": 9236,
      "Singh": 9237,
      "Sarkozy": 9238,
      "petr": 9239,
      "payment": 9240,
      "evil": 9241,
      "qualify": 9242,
      "circuit": 9243,
      "Centers": 9244,
      "Bou": 9245,
      "hik": 9246,
      "rocks": 9247,
      "semifinal": 9248,
      "Witness": 9249,
      "lain": 9250,
      "goalkeeper": 9251,
      "respected": 9252,
      "strengthen": 9253,
      "oren": 9254,
      "inea": 9255,
      "unders": 9256,
      "contribute": 9257,
      "Mumbai": 9258,
      "assum": 9259,
      "anded": 9260,
      "murders": 9261,
      "Angel": 9262,
      "Corpor": 9263,
      "somewhat": 9264,
      "glad": 9265,
      "Trust": 9266,
      "Trade": 9267,
      "engineer": 9268,
      "sponsor": 9269,
      "Orlando": 9270,
      "Fi": 9271,
      "Know": 9272,
      "€”": 9273,
      "selected": 9274,
      "izer": 9275,
      "compon": 9276,
      "weekly": 9277,
      "Marines": 9278,
      "enger": 9279,
      "crowded": 9280,
      "Charlot": 9281,
      "UE": 9282,
      "biz": 9283,
      "idi": 9284,
      "brush": 9285,
      "diversity": 9286,
      "Game": 9287,
      "retain": 9288,
      "elabor": 9289,
      "celebrating": 9290,
      "Rw": 9291,
      "pure": 9292,
      "dose": 9293,
      "banking": 9294,
      "painted": 9295,
      "Mercedes": 9296,
      "Pear": 9297,
      "defined": 9298,
      "Run": 9299,
      "pharm": 9300,
      "flex": 9301,
      "tale": 9302,
      "het": 9303,
      "brill": 9304,
      "Todd": 9305,
      "fles": 9306,
      "techniques": 9307,
      "astrona": 9308,
      "ols": 9309,
      "Armed": 9310,
      "awi": 9311,
      "drones": 9312,
      "Ethiop": 9313,
      "Tru": 9314,
      "ilater": 9315,
      "indicted": 9316,
      "keen": 9317,
      "comic": 9318,
      "llers": 9319,
      "compat": 9320,
      "munition": 9321,
      "Experts": 9322,
      "outlets": 9323,
      "prev": 9324,
      "announcing": 9325,
      "flags": 9326,
      "frustrated": 9327,
      "Fernando": 9328,
      "ec": 9329,
      "choos": 9330,
      "Norway": 9331,
      "radar": 9332,
      "purposes": 9333,
      "cliff": 9334,
      "07": 9335,
      "350": 9336,
      "aer": 9337,
      "pron": 9338,
      "equally": 9339,
      "IRS": 9340,
      "Pas": 9341,
      "anie": 9342,
      "enem": 9343,
      "meteor": 9344,
      "methods": 9345,
      "Ur": 9346,
      "naked": 9347,
      "diam": 9348,
      "perpetr": 9349,
      "Feli": 9350,
      "passes": 9351,
      "viral": 9352,
      "teenagers": 9353,
      "rockets": 9354,
      "catast": 9355,
      "epic": 9356,
      "Assembly": 9357,
      "queen": 9358,
      "Kenyan": 9359,
      "explanation": 9360,
      "branch": 9361,
      "ima": 9362,
      "Which": 9363,
      "mund": 9364,
      "www": 9365,
      "hin": 9366,
      "Grant": 9367,
      "audiences": 9368,
      "OND": 9369,
      "requirements": 9370,
      "Girl": 9371,
      "Hollande": 9372,
      "tire": 9373,
      "itis": 9374,
      "wet": 9375,
      "pic": 9376,
      "bec": 9377,
      "robot": 9378,
      "Anti": 9379,
      "brave": 9380,
      "Cand": 9381,
      "recip": 9382,
      "reduction": 9383,
      "engineering": 9384,
      "Venezuel": 9385,
      "Hudson": 9386,
      "zes": 9387,
      "reducing": 9388,
      "draft": 9389,
      "recruit": 9390,
      "subsequent": 9391,
      "enthusi": 9392,
      "genocide": 9393,
      "Cold": 9394,
      "thick": 9395,
      "donors": 9396,
      "expecting": 9397,
      "Click": 9398,
      "communicate": 9399,
      "performances": 9400,
      "beaches": 9401,
      "19th": 9402,
      "Capt": 9403,
      "pard": 9404,
      "mble": 9405,
      "flown": 9406,
      "10th": 9407,
      "topic": 9408,
      "closest": 9409,
      "suspension": 9410,
      "Xi": 9411,
      "damages": 9412,
      "Mourinho": 9413,
      "mant": 9414,
      "uded": 9415,
      "generated": 9416,
      "bullets": 9417,
      "una": 9418,
      "plun": 9419,
      "endors": 9420,
      "thri": 9421,
      "apolis": 9422,
      "Tottenham": 9423,
      "selection": 9424,
      "cos": 9425,
      "parliamentary": 9426,
      "bourne": 9427,
      "integrity": 9428,
      "mentally": 9429,
      "prompting": 9430,
      "Walsh": 9431,
      "longest": 9432,
      "Hass": 9433,
      "aze": 9434,
      "Franco": 9435,
      "Science": 9436,
      "diabet": 9437,
      "wil": 9438,
      "enrich": 9439,
      "Inside": 9440,
      "prestig": 9441,
[...]
